{
  "version": "1.0",
  "truncation": {
    "direction": "Right",
    "max_length": 128,
    "strategy": "LongestFirst",
    "stride": 0
  },
  "padding": null,
  "added_tokens": [
    {
      "id": 0,
      "content": "<pad>",
      "single_word": false,
      "lstrip": false,
      "rstrip": false,
      "normalized": false,
      "special": true
    },
    {
      "id": 1,
      "content": "</s>",
      "single_word": false,
      "lstrip": false,
      "rstrip": false,
      "normalized": false,
      "special": true
    },
    {
      "id": 50258,
      "content": "<extra_id_0>",
      "single_word": false,
      "lstrip": false,
      "rstrip": false,
      "normalized": false,
      "special": true
    },
    {
      "id": 50259,
      "content": "<extra_id_1>",
      "single_word": false,
      "lstrip": false,
      "rstrip": false,
      "normalized": false,
      "special": true
    },
    {
      "id": 50260,
      "content": "<extra_id_2>",
      "single_word": false,
      "lstrip": false,
      "rstrip": false,
      "normalized": false,
      "special": true
    },
    {
      "id": 50261,
      "content": "<extra_id_3>",
      "single_word": false,
      "lstrip": false,
      "rstrip": false,
      "normalized": false,
      "special": true
    },
    {
      "id": 50262,
      "content": "<extra_id_4>",
      "single_word": false,
      "lstrip": false,
      "rstrip": false,
      "normalized": false,
      "special": true
    },
    {
      "id": 50263,
      "content": "<extra_id_5>",
      "single_word": false,
      "lstrip": false,
      "rstrip": false,
      "normalized": false,
      "special": true
    },
    {
      "id": 50264,
      "content": "<extra_id_6>",
      "single_word": false,
      "lstrip": false,
      "rstrip": false,
      "normalized": false,
      "special": true
    },
    {
      "id": 50265,
      "content": "<extra_id_7>",
      "single_word": false,
      "lstrip": false,
      "rstrip": false,
      "normalized": false,
      "special": true
    },
    {
      "id": 50266,
      "content": "<extra_id_8>",
      "single_word": false,
      "lstrip": false,
      "rstrip": false,
      "normalized": false,
      "special": true
    },
    {
      "id": 50267,
      "content": "<extra_id_9>",
      "single_word": false,
      "lstrip": false,
      "rstrip": false,
      "normalized": false,
      "special": true
    },
    {
      "id": 50268,
      "content": "<extra_id_10>",
      "single_word": false,
      "lstrip": false,
      "rstrip": false,
      "normalized": false,
      "special": true
    },
    {
      "id": 50269,
      "content": "<extra_id_11>",
      "single_word": false,
      "lstrip": false,
      "rstrip": false,
      "normalized": false,
      "special": true
    },
    {
      "id": 50270,
      "content": "<extra_id_12>",
      "single_word": false,
      "lstrip": false,
      "rstrip": false,
      "normalized": false,
      "special": true
    },
    {
      "id": 50271,
      "content": "<extra_id_13>",
      "single_word": false,
      "lstrip": false,
      "rstrip": false,
      "normalized": false,
      "special": true
    },
    {
      "id": 50272,
      "content": "<extra_id_14>",
      "single_word": false,
      "lstrip": false,
      "rstrip": false,
      "normalized": false,
      "special": true
    },
    {
      "id": 50273,
      "content": "<extra_id_15>",
      "single_word": false,
      "lstrip": false,
      "rstrip": false,
      "normalized": false,
      "special": true
    },
    {
      "id": 50274,
      "content": "<extra_id_16>",
      "single_word": false,
      "lstrip": false,
      "rstrip": false,
      "normalized": false,
      "special": true
    },
    {
      "id": 50275,
      "content": "<extra_id_17>",
      "single_word": false,
      "lstrip": false,
      "rstrip": false,
      "normalized": false,
      "special": true
    },
    {
      "id": 50276,
      "content": "<extra_id_18>",
      "single_word": false,
      "lstrip": false,
      "rstrip": false,
      "normalized": false,
      "special": true
    },
    {
      "id": 50277,
      "content": "<extra_id_19>",
      "single_word": false,
      "lstrip": false,
      "rstrip": false,
      "normalized": false,
      "special": true
    },
    {
      "id": 50278,
      "content": "<extra_id_20>",
      "single_word": false,
      "lstrip": false,
      "rstrip": false,
      "normalized": false,
      "special": true
    },
    {
      "id": 50279,
      "content": "<extra_id_21>",
      "single_word": false,
      "lstrip": false,
      "rstrip": false,
      "normalized": false,
      "special": true
    },
    {
      "id": 50280,
      "content": "<extra_id_22>",
      "single_word": false,
      "lstrip": false,
      "rstrip": false,
      "normalized": false,
      "special": true
    },
    {
      "id": 50281,
      "content": "<extra_id_23>",
      "single_word": false,
      "lstrip": false,
      "rstrip": false,
      "normalized": false,
      "special": true
    },
    {
      "id": 50282,
      "content": "<extra_id_24>",
      "single_word": false,
      "lstrip": false,
      "rstrip": false,
      "normalized": false,
      "special": true
    },
    {
      "id": 50283,
      "content": "<extra_id_25>",
      "single_word": false,
      "lstrip": false,
      "rstrip": false,
      "normalized": false,
      "special": true
    },
    {
      "id": 50284,
      "content": "<extra_id_26>",
      "single_word": false,
      "lstrip": false,
      "rstrip": false,
      "normalized": false,
      "special": true
    },
    {
      "id": 50285,
      "content": "<extra_id_27>",
      "single_word": false,
      "lstrip": false,
      "rstrip": false,
      "normalized": false,
      "special": true
    },
    {
      "id": 50286,
      "content": "<extra_id_28>",
      "single_word": false,
      "lstrip": false,
      "rstrip": false,
      "normalized": false,
      "special": true
    },
    {
      "id": 50287,
      "content": "<extra_id_29>",
      "single_word": false,
      "lstrip": false,
      "rstrip": false,
      "normalized": false,
      "special": true
    },
    {
      "id": 50288,
      "content": "<extra_id_30>",
      "single_word": false,
      "lstrip": false,
      "rstrip": false,
      "normalized": false,
      "special": true
    },
    {
      "id": 50289,
      "content": "<extra_id_31>",
      "single_word": false,
      "lstrip": false,
      "rstrip": false,
      "normalized": false,
      "special": true
    },
    {
      "id": 50290,
      "content": "<extra_id_32>",
      "single_word": false,
      "lstrip": false,
      "rstrip": false,
      "normalized": false,
      "special": true
    },
    {
      "id": 50291,
      "content": "<extra_id_33>",
      "single_word": false,
      "lstrip": false,
      "rstrip": false,
      "normalized": false,
      "special": true
    },
    {
      "id": 50292,
      "content": "<extra_id_34>",
      "single_word": false,
      "lstrip": false,
      "rstrip": false,
      "normalized": false,
      "special": true
    },
    {
      "id": 50293,
      "content": "<extra_id_35>",
      "single_word": false,
      "lstrip": false,
      "rstrip": false,
      "normalized": false,
      "special": true
    },
    {
      "id": 50294,
      "content": "<extra_id_36>",
      "single_word": false,
      "lstrip": false,
      "rstrip": false,
      "normalized": false,
      "special": true
    },
    {
      "id": 50295,
      "content": "<extra_id_37>",
      "single_word": false,
      "lstrip": false,
      "rstrip": false,
      "normalized": false,
      "special": true
    },
    {
      "id": 50296,
      "content": "<extra_id_38>",
      "single_word": false,
      "lstrip": false,
      "rstrip": false,
      "normalized": false,
      "special": true
    },
    {
      "id": 50297,
      "content": "<extra_id_39>",
      "single_word": false,
      "lstrip": false,
      "rstrip": false,
      "normalized": false,
      "special": true
    },
    {
      "id": 50298,
      "content": "<extra_id_40>",
      "single_word": false,
      "lstrip": false,
      "rstrip": false,
      "normalized": false,
      "special": true
    },
    {
      "id": 50299,
      "content": "<extra_id_41>",
      "single_word": false,
      "lstrip": false,
      "rstrip": false,
      "normalized": false,
      "special": true
    },
    {
      "id": 50300,
      "content": "<extra_id_42>",
      "single_word": false,
      "lstrip": false,
      "rstrip": false,
      "normalized": false,
      "special": true
    },
    {
      "id": 50301,
      "content": "<extra_id_43>",
      "single_word": false,
      "lstrip": false,
      "rstrip": false,
      "normalized": false,
      "special": true
    },
    {
      "id": 50302,
      "content": "<extra_id_44>",
      "single_word": false,
      "lstrip": false,
      "rstrip": false,
      "normalized": false,
      "special": true
    },
    {
      "id": 50303,
      "content": "<extra_id_45>",
      "single_word": false,
      "lstrip": false,
      "rstrip": false,
      "normalized": false,
      "special": true
    },
    {
      "id": 50304,
      "content": "<extra_id_46>",
      "single_word": false,
      "lstrip": false,
      "rstrip": false,
      "normalized": false,
      "special": true
    },
    {
      "id": 50305,
      "content": "<extra_id_47>",
      "single_word": false,
      "lstrip": false,
      "rstrip": false,
      "normalized": false,
      "special": true
    },
    {
      "id": 50306,
      "content": "<extra_id_48>",
      "single_word": false,
      "lstrip": false,
      "rstrip": false,
      "normalized": false,
      "special": true
    },
    {
      "id": 50307,
      "content": "<extra_id_49>",
      "single_word": false,
      "lstrip": false,
      "rstrip": false,
      "normalized": false,
      "special": true
    },
    {
      "id": 50308,
      "content": "<extra_id_50>",
      "single_word": false,
      "lstrip": false,
      "rstrip": false,
      "normalized": false,
      "special": true
    },
    {
      "id": 50309,
      "content": "<extra_id_51>",
      "single_word": false,
      "lstrip": false,
      "rstrip": false,
      "normalized": false,
      "special": true
    },
    {
      "id": 50310,
      "content": "<extra_id_52>",
      "single_word": false,
      "lstrip": false,
      "rstrip": false,
      "normalized": false,
      "special": true
    },
    {
      "id": 50311,
      "content": "<extra_id_53>",
      "single_word": false,
      "lstrip": false,
      "rstrip": false,
      "normalized": false,
      "special": true
    },
    {
      "id": 50312,
      "content": "<extra_id_54>",
      "single_word": false,
      "lstrip": false,
      "rstrip": false,
      "normalized": false,
      "special": true
    },
    {
      "id": 50313,
      "content": "<extra_id_55>",
      "single_word": false,
      "lstrip": false,
      "rstrip": false,
      "normalized": false,
      "special": true
    },
    {
      "id": 50314,
      "content": "<extra_id_56>",
      "single_word": false,
      "lstrip": false,
      "rstrip": false,
      "normalized": false,
      "special": true
    },
    {
      "id": 50315,
      "content": "<extra_id_57>",
      "single_word": false,
      "lstrip": false,
      "rstrip": false,
      "normalized": false,
      "special": true
    },
    {
      "id": 50316,
      "content": "<extra_id_58>",
      "single_word": false,
      "lstrip": false,
      "rstrip": false,
      "normalized": false,
      "special": true
    },
    {
      "id": 50317,
      "content": "<extra_id_59>",
      "single_word": false,
      "lstrip": false,
      "rstrip": false,
      "normalized": false,
      "special": true
    },
    {
      "id": 50318,
      "content": "<extra_id_60>",
      "single_word": false,
      "lstrip": false,
      "rstrip": false,
      "normalized": false,
      "special": true
    },
    {
      "id": 50319,
      "content": "<extra_id_61>",
      "single_word": false,
      "lstrip": false,
      "rstrip": false,
      "normalized": false,
      "special": true
    },
    {
      "id": 50320,
      "content": "<extra_id_62>",
      "single_word": false,
      "lstrip": false,
      "rstrip": false,
      "normalized": false,
      "special": true
    },
    {
      "id": 50321,
      "content": "<extra_id_63>",
      "single_word": false,
      "lstrip": false,
      "rstrip": false,
      "normalized": false,
      "special": true
    },
    {
      "id": 50322,
      "content": "<extra_id_64>",
      "single_word": false,
      "lstrip": false,
      "rstrip": false,
      "normalized": false,
      "special": true
    },
    {
      "id": 50323,
      "content": "<extra_id_65>",
      "single_word": false,
      "lstrip": false,
      "rstrip": false,
      "normalized": false,
      "special": true
    },
    {
      "id": 50324,
      "content": "<extra_id_66>",
      "single_word": false,
      "lstrip": false,
      "rstrip": false,
      "normalized": false,
      "special": true
    },
    {
      "id": 50325,
      "content": "<extra_id_67>",
      "single_word": false,
      "lstrip": false,
      "rstrip": false,
      "normalized": false,
      "special": true
    },
    {
      "id": 50326,
      "content": "<extra_id_68>",
      "single_word": false,
      "lstrip": false,
      "rstrip": false,
      "normalized": false,
      "special": true
    },
    {
      "id": 50327,
      "content": "<extra_id_69>",
      "single_word": false,
      "lstrip": false,
      "rstrip": false,
      "normalized": false,
      "special": true
    },
    {
      "id": 50328,
      "content": "<extra_id_70>",
      "single_word": false,
      "lstrip": false,
      "rstrip": false,
      "normalized": false,
      "special": true
    },
    {
      "id": 50329,
      "content": "<extra_id_71>",
      "single_word": false,
      "lstrip": false,
      "rstrip": false,
      "normalized": false,
      "special": true
    },
    {
      "id": 50330,
      "content": "<extra_id_72>",
      "single_word": false,
      "lstrip": false,
      "rstrip": false,
      "normalized": false,
      "special": true
    },
    {
      "id": 50331,
      "content": "<extra_id_73>",
      "single_word": false,
      "lstrip": false,
      "rstrip": false,
      "normalized": false,
      "special": true
    },
    {
      "id": 50332,
      "content": "<extra_id_74>",
      "single_word": false,
      "lstrip": false,
      "rstrip": false,
      "normalized": false,
      "special": true
    },
    {
      "id": 50333,
      "content": "<extra_id_75>",
      "single_word": false,
      "lstrip": false,
      "rstrip": false,
      "normalized": false,
      "special": true
    },
    {
      "id": 50334,
      "content": "<extra_id_76>",
      "single_word": false,
      "lstrip": false,
      "rstrip": false,
      "normalized": false,
      "special": true
    },
    {
      "id": 50335,
      "content": "<extra_id_77>",
      "single_word": false,
      "lstrip": false,
      "rstrip": false,
      "normalized": false,
      "special": true
    },
    {
      "id": 50336,
      "content": "<extra_id_78>",
      "single_word": false,
      "lstrip": false,
      "rstrip": false,
      "normalized": false,
      "special": true
    },
    {
      "id": 50337,
      "content": "<extra_id_79>",
      "single_word": false,
      "lstrip": false,
      "rstrip": false,
      "normalized": false,
      "special": true
    },
    {
      "id": 50338,
      "content": "<extra_id_80>",
      "single_word": false,
      "lstrip": false,
      "rstrip": false,
      "normalized": false,
      "special": true
    },
    {
      "id": 50339,
      "content": "<extra_id_81>",
      "single_word": false,
      "lstrip": false,
      "rstrip": false,
      "normalized": false,
      "special": true
    },
    {
      "id": 50340,
      "content": "<extra_id_82>",
      "single_word": false,
      "lstrip": false,
      "rstrip": false,
      "normalized": false,
      "special": true
    },
    {
      "id": 50341,
      "content": "<extra_id_83>",
      "single_word": false,
      "lstrip": false,
      "rstrip": false,
      "normalized": false,
      "special": true
    },
    {
      "id": 50342,
      "content": "<extra_id_84>",
      "single_word": false,
      "lstrip": false,
      "rstrip": false,
      "normalized": false,
      "special": true
    },
    {
      "id": 50343,
      "content": "<extra_id_85>",
      "single_word": false,
      "lstrip": false,
      "rstrip": false,
      "normalized": false,
      "special": true
    },
    {
      "id": 50344,
      "content": "<extra_id_86>",
      "single_word": false,
      "lstrip": false,
      "rstrip": false,
      "normalized": false,
      "special": true
    },
    {
      "id": 50345,
      "content": "<extra_id_87>",
      "single_word": false,
      "lstrip": false,
      "rstrip": false,
      "normalized": false,
      "special": true
    },
    {
      "id": 50346,
      "content": "<extra_id_88>",
      "single_word": false,
      "lstrip": false,
      "rstrip": false,
      "normalized": false,
      "special": true
    },
    {
      "id": 50347,
      "content": "<extra_id_89>",
      "single_word": false,
      "lstrip": false,
      "rstrip": false,
      "normalized": false,
      "special": true
    },
    {
      "id": 50348,
      "content": "<extra_id_90>",
      "single_word": false,
      "lstrip": false,
      "rstrip": false,
      "normalized": false,
      "special": true
    },
    {
      "id": 50349,
      "content": "<extra_id_91>",
      "single_word": false,
      "lstrip": false,
      "rstrip": false,
      "normalized": false,
      "special": true
    },
    {
      "id": 50350,
      "content": "<extra_id_92>",
      "single_word": false,
      "lstrip": false,
      "rstrip": false,
      "normalized": false,
      "special": true
    },
    {
      "id": 50351,
      "content": "<extra_id_93>",
      "single_word": false,
      "lstrip": false,
      "rstrip": false,
      "normalized": false,
      "special": true
    },
    {
      "id": 50352,
      "content": "<extra_id_94>",
      "single_word": false,
      "lstrip": false,
      "rstrip": false,
      "normalized": false,
      "special": true
    },
    {
      "id": 50353,
      "content": "<extra_id_95>",
      "single_word": false,
      "lstrip": false,
      "rstrip": false,
      "normalized": false,
      "special": true
    },
    {
      "id": 50354,
      "content": "<extra_id_96>",
      "single_word": false,
      "lstrip": false,
      "rstrip": false,
      "normalized": false,
      "special": true
    },
    {
      "id": 50355,
      "content": "<extra_id_97>",
      "single_word": false,
      "lstrip": false,
      "rstrip": false,
      "normalized": false,
      "special": true
    },
    {
      "id": 50356,
      "content": "<extra_id_98>",
      "single_word": false,
      "lstrip": false,
      "rstrip": false,
      "normalized": false,
      "special": true
    },
    {
      "id": 50357,
      "content": "<extra_id_99>",
      "single_word": false,
      "lstrip": false,
      "rstrip": false,
      "normalized": false,
      "special": true
    }
  ],
  "normalizer": {
    "type": "NFKC"
  },
  "pre_tokenizer": {
    "type": "ByteLevel",
    "add_prefix_space": false,
    "trim_offsets": true,
    "use_regex": true
  },
  "post_processor": {
    "type": "TemplateProcessing",
    "single": [
      {
        "Sequence": {
          "id": "A",
          "type_id": 0
        }
      },
      {
        "SpecialToken": {
          "id": "</s>",
          "type_id": 0
        }
      }
    ],
    "pair": [
      {
        "Sequence": {
          "id": "A",
          "type_id": 0
        }
      },
      {
        "Sequence": {
          "id": "B",
          "type_id": 1
        }
      },
      {
        "SpecialToken": {
          "id": "</s>",
          "type_id": 0
        }
      }
    ],
    "special_tokens": {
      "</s>": {
        "id": "</s>",
        "ids": [
          1
        ],
        "tokens": [
          "</s>"
        ]
      }
    }
  },
  "decoder": {
    "type": "ByteLevel",
    "add_prefix_space": true,
    "trim_offsets": true,
    "use_regex": true
  },
  "model": {
    "type": "BPE",
    "dropout": null,
    "unk_token": null,
    "continuing_subword_prefix": "",
    "end_of_word_suffix": "",
    "fuse_unk": false,
    "vocab": {
      "<pad>": 0,
      "</s>": 1,
      "!": 2,
      "\"": 3,
      "#": 4,
      "$": 5,
      "%": 6,
      "&": 7,
      "'": 8,
      "(": 9,
      ")": 10,
      "*": 11,
      "+": 12,
      ",": 13,
      "-": 14,
      ".": 15,
      "/": 16,
      "0": 17,
      "1": 18,
      "2": 19,
      "3": 20,
      "4": 21,
      "5": 22,
      "6": 23,
      "7": 24,
      "8": 25,
      "9": 26,
      ":": 27,
      ";": 28,
      "<": 29,
      "=": 30,
      ">": 31,
      "?": 32,
      "@": 33,
      "A": 34,
      "B": 35,
      "C": 36,
      "D": 37,
      "E": 38,
      "F": 39,
      "G": 40,
      "H": 41,
      "I": 42,
      "J": 43,
      "K": 44,
      "L": 45,
      "M": 46,
      "N": 47,
      "O": 48,
      "P": 49,
      "Q": 50,
      "R": 51,
      "S": 52,
      "T": 53,
      "U": 54,
      "V": 55,
      "W": 56,
      "X": 57,
      "Y": 58,
      "Z": 59,
      "[": 60,
      "\\": 61,
      "]": 62,
      "^": 63,
      "_": 64,
      "`": 65,
      "a": 66,
      "b": 67,
      "c": 68,
      "d": 69,
      "e": 70,
      "f": 71,
      "g": 72,
      "h": 73,
      "i": 74,
      "j": 75,
      "k": 76,
      "l": 77,
      "m": 78,
      "n": 79,
      "o": 80,
      "p": 81,
      "q": 82,
      "r": 83,
      "s": 84,
      "t": 85,
      "u": 86,
      "v": 87,
      "w": 88,
      "x": 89,
      "y": 90,
      "z": 91,
      "{": 92,
      "|": 93,
      "}": 94,
      "~": 95,
      "¡": 96,
      "¢": 97,
      "£": 98,
      "¤": 99,
      "¥": 100,
      "¦": 101,
      "§": 102,
      "¨": 103,
      "©": 104,
      "ª": 105,
      "«": 106,
      "¬": 107,
      "®": 108,
      "¯": 109,
      "°": 110,
      "±": 111,
      "²": 112,
      "³": 113,
      "´": 114,
      "µ": 115,
      "¶": 116,
      "·": 117,
      "¸": 118,
      "¹": 119,
      "º": 120,
      "»": 121,
      "¼": 122,
      "½": 123,
      "¾": 124,
      "¿": 125,
      "À": 126,
      "Á": 127,
      "Â": 128,
      "Ã": 129,
      "Ä": 130,
      "Å": 131,
      "Æ": 132,
      "Ç": 133,
      "È": 134,
      "É": 135,
      "Ê": 136,
      "Ë": 137,
      "Ì": 138,
      "Í": 139,
      "Î": 140,
      "Ï": 141,
      "Ð": 142,
      "Ñ": 143,
      "Ò": 144,
      "Ó": 145,
      "Ô": 146,
      "Õ": 147,
      "Ö": 148,
      "×": 149,
      "Ø": 150,
      "Ù": 151,
      "Ú": 152,
      "Û": 153,
      "Ü": 154,
      "Ý": 155,
      "Þ": 156,
      "ß": 157,
      "à": 158,
      "á": 159,
      "â": 160,
      "ã": 161,
      "ä": 162,
      "å": 163,
      "æ": 164,
      "ç": 165,
      "è": 166,
      "é": 167,
      "ê": 168,
      "ë": 169,
      "ì": 170,
      "í": 171,
      "î": 172,
      "ï": 173,
      "ð": 174,
      "ñ": 175,
      "ò": 176,
      "ó": 177,
      "ô": 178,
      "õ": 179,
      "ö": 180,
      "÷": 181,
      "ø": 182,
      "ù": 183,
      "ú": 184,
      "û": 185,
      "ü": 186,
      "ý": 187,
      "þ": 188,
      "ÿ": 189,
      "Ā": 190,
      "ā": 191,
      "Ă": 192,
      "ă": 193,
      "Ą": 194,
      "ą": 195,
      "Ć": 196,
      "ć": 197,
      "Ĉ": 198,
      "ĉ": 199,
      "Ċ": 200,
      "ċ": 201,
      "Č": 202,
      "č": 203,
      "Ď": 204,
      "ď": 205,
      "Đ": 206,
      "đ": 207,
      "Ē": 208,
      "ē": 209,
      "Ĕ": 210,
      "ĕ": 211,
      "Ė": 212,
      "ė": 213,
      "Ę": 214,
      "ę": 215,
      "Ě": 216,
      "ě": 217,
      "Ĝ": 218,
      "ĝ": 219,
      "Ğ": 220,
      "ğ": 221,
      "Ġ": 222,
      "ġ": 223,
      "Ģ": 224,
      "ģ": 225,
      "Ĥ": 226,
      "ĥ": 227,
      "Ħ": 228,
      "ħ": 229,
      "Ĩ": 230,
      "ĩ": 231,
      "Ī": 232,
      "ī": 233,
      "Ĭ": 234,
      "ĭ": 235,
      "Į": 236,
      "į": 237,
      "İ": 238,
      "ı": 239,
      "Ĳ": 240,
      "ĳ": 241,
      "Ĵ": 242,
      "ĵ": 243,
      "Ķ": 244,
      "ķ": 245,
      "ĸ": 246,
      "Ĺ": 247,
      "ĺ": 248,
      "Ļ": 249,
      "ļ": 250,
      "Ľ": 251,
      "ľ": 252,
      "Ŀ": 253,
      "ŀ": 254,
      "Ł": 255,
      "ł": 256,
      "Ń": 257,
      "ìĿ": 258,
      "ëĭ": 259,
      "íķ": 260,
      "ìĹ": 261,
      "ìĿ´": 262,
      "ê°": 263,
      "ìŀ": 264,
      "ìł": 265,
      "ê³": 266,
      "ëĭ¤": 267,
      "ìķ": 268,
      "ìĦ": 269,
      "ì§": 270,
      "ëĬ": 271,
      "ìĭ": 272,
      "ìļ": 273,
      "ëĬĶ": 274,
      "ë§": 275,
      "ê²": 276,
      "ê¸": 277,
      "ê°Ģ": 278,
      "ìĹĲ": 279,
      "ê³ł": 280,
      "íķĺ": 281,
      "ëı": 282,
      "ëĤ": 283,
      "ì§Ģ": 284,
      "ë°": 285,
      "ìĸ": 286,
      "ëĵ": 287,
      "ë¡": 288,
      "ìĤ": 289,
      "ìľ": 290,
      "ìĿĦ": 291,
      "ë¦": 292,
      "ë¡ľ": 293,
      "ê¸°": 294,
      "ë³": 295,
      "ìļĶ": 296,
      "ìĦľ": 297,
      "Īëĭ¤": 298,
      "ìĬ": 299,
      "ìĺ": 300,
      "ëıĦ": 301,
      "ìĿĺ": 302,
      "êµ": 303,
      "ìĭľ": 304,
      "íķľ": 305,
      "ìĸ´": 306,
      "ë¥": 307,
      "ë¶": 308,
      "ìķĦ": 309,
      "ìĥ": 310,
      "ìĿĢ": 311,
      "ìĤ¬": 312,
      "ë¬": 313,
      "ê·": 314,
      "ìĽ": 315,
      "ë¦¬": 316,
      "ëį": 317,
      "ìĪ": 318,
      "ë©": 319,
      "ê±": 320,
      "ìĿ¸": 321,
      "íķ´": 322,
      "ëª": 323,
      "ëĤĺ": 324,
      "ëĿ": 325,
      "ì£": 326,
      "ëł": 327,
      "ëĮ": 328,
      "ëĮĢ": 329,
      "ìŀĲ": 330,
      "ëĭĪëĭ¤": 331,
      "ëĿ¼": 332,
      "ë¥¼": 333,
      "ìĪĺ": 334,
      "ëŀ": 335,
      "ë³´": 336,
      "ê·¸": 337,
      "ìĬ¤": 338,
      "íĻ": 339,
      "ì²": 340,
      "ì£¼": 341,
      "ìľ¼": 342,
      "ìłķ": 343,
      "ìĨ": 344,
      "ê²Į": 345,
      "ë²": 346,
      "íĸ": 347,
      "ë§Į": 348,
      "ìĿ¼": 349,
      "ì¹": 350,
      "íĺ": 351,
      "ëĵ¤": 352,
      "ìłĦ": 353,
      "ìłľ": 354,
      "ëĲ": 355,
      "ì°": 356,
      "ìŀĪ": 357,
      "ê±°": 358,
      "ë©´": 359,
      "ë¹": 360,
      "ìĽĲ": 361,
      "ìĻ": 362,
      "ìĥģ": 363,
      "ë¶Ģ": 364,
      "ëŁ": 365,
      "êµ¬": 366,
      "ëĦ": 367,
      "íĥ": 368,
      "ìŀ¥": 369,
      "ì¤": 370,
      "íĮ": 371,
      "íĬ": 372,
      "ìľ¼ë¡ľ": 373,
      "ëį°": 374,
      "ë¯": 375,
      "ê¹": 376,
      "ëħ": 377,
      "ëĭĪ": 378,
      "ì¶": 379,
      "ëĵľ": 380,
      "ê³¼": 381,
      "ì¡": 382,
      "ìĦ¸": 383,
      "ë§Ī": 384,
      "ìĺ¤": 385,
      "ìĹ¬": 386,
      "íĶ": 387,
      "ìĭł": 388,
      "ìĹĲìĦľ": 389,
      "ë¹Ħ": 390,
      "ìķĪ": 391,
      "ë¬´": 392,
      "ëıĻ": 393,
      "ë¬¸": 394,
      "ì¢": 395,
      "ìĦ±": 396,
      "ëĤ´": 397,
      "ê²ĥ": 398,
      "íĬ¸": 399,
      "ìŀħ": 400,
      "ìļ°": 401,
      "ìĨĮ": 402,
      "ìłģ": 403,
      "ì§Ħ": 404,
      "ê´": 405,
      "ìļ©": 406,
      "íı": 407,
      "ê³µ": 408,
      "ìĬµ": 409,
      "ë¶Ħ": 410,
      "íķł": 411,
      "ëª¨": 412,
      "ëĶ": 413,
      "ëĲĺ": 414,
      "íĨ": 415,
      "íļ": 416,
      "ì¤ĳ": 417,
      "ë§¤": 418,
      "ìĥĿ": 419,
      "ë£": 420,
      "ìľĦ": 421,
      "êµŃ": 422,
      "íģ": 423,
      "ê²½": 424,
      "ìłĢ": 425,
      "ê°ľ": 426,
      "ë¯¸": 427,
      "íĻĶ": 428,
      "íķĺëĬĶ": 429,
      "ê°Ħ": 430,
      "ìľł": 431,
      "ê¹Į": 432,
      "ìķ¼": 433,
      "ì¡°": 434,
      "íĦ": 435,
      "ì¦": 436,
      "ìĻĢ": 437,
      "ë°Ķ": 438,
      "ìĦł": 439,
      "ê¸Ī": 440,
      "ìĬµëĭĪëĭ¤": 441,
      "ì¹ĺ": 442,
      "íķĺê³ł": 443,
      "ìĭ¤": 444,
      "ëŀĺ": 445,
      "ìĹħ": 446,
      "íĴ": 447,
      "íŀ": 448,
      "ëĦ¤": 449,
      "ëĵ±": 450,
      "ëįĶ": 451,
      "ìĹ°": 452,
      "ë°©": 453,
      "ëł¤": 454,
      "íĦ°": 455,
      "ê´Ģ": 456,
      "ë§Ĳ": 457,
      "ëŁ¬": 458,
      "íļĮ": 459,
      "ìĹĨ": 460,
      "íİ": 461,
      "ê³Ħ": 462,
      "ëķ": 463,
      "ë¬¼": 464,
      "íķ©": 465,
      "ì°¨": 466,
      "ìĺģ": 467,
      "ìĿĮ": 468,
      "íĽ": 469,
      "íĸī": 470,
      "ëĳ": 471,
      "ëªħ": 472,
      "ìĤ°": 473,
      "ìħ": 474,
      "ë¨": 475,
      "ìĭĿ": 476,
      "ìŀ¬": 477,
      "ëĭ¨": 478,
      "ìļ´": 479,
      "ëĭ¹": 480,
      "ê±´": 481,
      "ëħĦ": 482,
      "ëķĮ": 483,
      "íĴĪ": 484,
      "íķĻ": 485,
      "êµĲ": 486,
      "ì´": 487,
      "ë°ľ": 488,
      "ê°Ļ": 489,
      "ë²Ī": 490,
      "ìŀĪëĬĶ": 491,
      "ë©°": 492,
      "ê°Ĳ": 493,
      "íŀĪ": 494,
      "íĽĦ": 495,
      "íĥĢ": 496,
      "ì²´": 497,
      "íĨµ": 498,
      "ìŀĳ": 499,
      "íĸĪëĭ¤": 500,
      "íħ": 501,
      "ìĺĪ": 502,
      "íĹ": 503,
      "ì¹´": 504,
      "ìĸĳ": 505,
      "íĸĪ": 506,
      "ì¢ĭ": 507,
      "ìķĬ": 508,
      "ë°°": 509,
      "íģ¬": 510,
      "ê°ģ": 511,
      "ë°ĺ": 512,
      "ìĹĪ": 513,
      "ê°ķ": 514,
      "ìĽĶ": 515,
      "ìĹŃ": 516,
      "ëĳĲ": 517,
      "ì½": 518,
      "ì§ģ": 519,
      "ëĬĶëį°": 520,
      "íĶĦ": 521,
      "ëĨ": 522,
      "íĮĲ": 523,
      "ë¥´": 524,
      "ìłĲ": 525,
      "íĿ": 526,
      "ìĭ¬": 527,
      "íĺ¸": 528,
      "íı¬": 529,
      "ìŀĪëĭ¤": 530,
      "ëĶĶ": 531,
      "íĶ¼": 532,
      "ëĤ¨": 533,
      "ì¶ľ": 534,
      "ìŀħëĭĪëĭ¤": 535,
      "ìµ": 536,
      "ë¸": 537,
      "ëĲľ": 538,
      "íĮĮ": 539,
      "ìµľ": 540,
      "ë£Į": 541,
      "íĺĦ": 542,
      "ê²©": 543,
      "ì§Ģë§Į": 544,
      "ê²ł": 545,
      "íĤ": 546,
      "ë§İ": 547,
      "ëłĪ": 548,
      "ëĭĺ": 549,
      "íķ©ëĭĪëĭ¤": 550,
      "ì»": 551,
      "ëįĺ": 552,
      "ë´": 553,
      "ëĭ¬": 554,
      "ì²ľ": 555,
      "ì±": 556,
      "ì²Ń": 557,
      "ëģ": 558,
      "ìĦ¸ìļĶ": 559,
      "ê¸Ģ": 560,
      "ìĦ¤": 561,
      "ì²ĺ": 562,
      "ëĪ": 563,
      "ìŀĦ": 564,
      "ì¶Ķ": 565,
      "íĭ": 566,
      "ìķĮ": 567,
      "ì§ĳ": 568,
      "ìĿ´ëĿ¼": 569,
      "ìĿ´ëĭ¤": 570,
      "íĳ": 571,
      "ë¯¼": 572,
      "ëĬ¥": 573,
      "ë²Ħ": 574,
      "ê²°": 575,
      "ëĤľ": 576,
      "ìĺ¬": 577,
      "ìĨį": 578,
      "ê¹Įì§Ģ": 579,
      "ë°Ľ": 580,
      "ë¶Ī": 581,
      "ë³¸": 582,
      "ëĦĪ": 583,
      "íķ¨": 584,
      "ìķ½": 585,
      "ê¶": 586,
      "ëħ¸": 587,
      "íķľëĭ¤": 588,
      "ëł¥": 589,
      "ê»": 590,
      "íĻķ": 591,
      "ìŀĺ": 592,
      "ìĤ¬ëŀ": 593,
      "íķĺê²Į": 594,
      "ëĥ": 595,
      "ë²ķ": 596,
      "ëĸ": 597,
      "ìĶ": 598,
      "ê·¼": 599,
      "ìļ¸": 600,
      "ëĤł": 601,
      "íķ´ìĦľ": 602,
      "ëŁ°": 603,
      "ì¦Ŀ": 604,
      "ë¨¹": 605,
      "ì¼": 606,
      "ì¤Ģ": 607,
      "ìķĺ": 608,
      "ì§Ī": 609,
      "ì¢ħ": 610,
      "íĬ¹": 611,
      "ëĺ": 612,
      "ì½Ķ": 613,
      "íĺķ": 614,
      "íĳľ": 615,
      "ë¥¸": 616,
      "ì´Ī": 617,
      "ë£¨": 618,
      "ëĭ´": 619,
      "íİ¸": 620,
      "íĨł": 621,
      "ê¸ī": 622,
      "ëª©": 623,
      "ìĻ¸": 624,
      "ìĨ¡": 625,
      "ë°ķ": 626,
      "ëĵł": 627,
      "ëĵ¤ìĸ´": 628,
      "ìĤ´": 629,
      "íĤ¤": 630,
      "ëª»": 631,
      "ë³µ": 632,
      "íħĮ": 633,
      "íĭ°": 634,
      "ìķĦìĿ´": 635,
      "ìĥĿê°ģ": 636,
      "íĥľ": 637,
      "ê»ĺ": 638,
      "íĥĿ": 639,
      "ëĺĲ": 640,
      "ë¡Ŀ": 641,
      "ìĭľê°Ħ": 642,
      "ì¸": 643,
      "ë©´ìĦľ": 644,
      "ëĶ°": 645,
      "ìĽĮ": 646,
      "íĻĺ": 647,
      "ë³Ģ": 648,
      "ëĬĺ": 649,
      "ê¶Į": 650,
      "íİĺ": 651,
      "ë¦°": 652,
      "íĪ": 653,
      "ì°¸": 654,
      "ìĹĲê²Į": 655,
      "ë©Ķ": 656,
      "ê¸¸": 657,
      "ìĹĪëĭ¤": 658,
      "ë¦¬ê³ł": 659,
      "ìĤ¬ëŀĮ": 660,
      "ëŀĳ": 661,
      "ìĥĪ": 662,
      "ìķĦëĭĪ": 663,
      "êµ°": 664,
      "íķĦ": 665,
      "ê¹Ģ": 666,
      "ë¶ĢíĦ°": 667,
      "ê±¸": 668,
      "íĻľ": 669,
      "ëĬĲ": 670,
      "íıī": 671,
      "ê°ĢëĬ¥": 672,
      "ë§ŀ": 673,
      "íĪ¬": 674,
      "ì¦Ī": 675,
      "ìĦĿ": 676,
      "ìĺ¨": 677,
      "ìĹ´": 678,
      "ìŀĪìĸ´": 679,
      "ë¦Ħ": 680,
      "ë³Ħ": 681,
      "ê±°ëŀĺ": 682,
      "íķĺìĭľ": 683,
      "ë¸Į": 684,
      "ë¦½": 685,
      "ìĺĢ": 686,
      "ëłĩ": 687,
      "ìłĪ": 688,
      "ì£ł": 689,
      "ìĹĲëĬĶ": 690,
      "ëŃ": 691,
      "ì¹ľ": 692,
      "ìĸ¸": 693,
      "íķŃ": 694,
      "íĮĲë§¤": 695,
      "ëĭ¤ê³ł": 696,
      "íķłìĿ¸": 697,
      "ê°Ģê²©": 698,
      "ìļ°ë¦¬": 699,
      "ìĵ": 700,
      "íķĺê¸°": 701,
      "íĹĺ": 702,
      "ëĭµ": 703,
      "ìķł": 704,
      "ìĤ¬ì§Ħ": 705,
      "ëĿ¼ê³ł": 706,
      "ìĭ¶": 707,
      "ìĤ¬ìļ©": 708,
      "ìĻĦ": 709,
      "ë°ı": 710,
      "ê³³": 711,
      "ì±ħ": 712,
      "ìĪł": 713,
      "ë¨¸": 714,
      "ìĥī": 715,
      "ê¼": 716,
      "ëĪĦ": 717,
      "ë¸Ķ": 718,
      "ë³´ëĭ¤": 719,
      "íķĺëĤĺ": 720,
      "íĶĮ": 721,
      "ìľ¡": 722,
      "ëıĮ": 723,
      "ê´ĳ": 724,
      "íĸ¥": 725,
      "ëŁ¼": 726,
      "ìłĳ": 727,
      "íķĺì§Ģ": 728,
      "ìħĺ": 729,
      "íĿ¬": 730,
      "ìĪľ": 731,
      "ìĬ¹": 732,
      "ë§Ľ": 733,
      "ë¦¼": 734,
      "ëĿ½": 735,
      "ìª": 736,
      "ê·¸ëŀĺ": 737,
      "ìŀĪìĬµëĭĪëĭ¤": 738,
      "ìħĶ": 739,
      "ëĦĪë¬´": 740,
      "ê°ĻìĿĢ": 741,
      "ìĨĲ": 742,
      "ëŀĢ": 743,
      "ìĸ¼": 744,
      "ëĮĢíķľ": 745,
      "ìł¸": 746,
      "ìī": 747,
      "ì»¤": 748,
      "ë§Ŀ": 749,
      "ìłķëıĦ": 750,
      "íķĺë©´": 751,
      "ëŁī": 752,
      "ë§ī": 753,
      "ìº": 754,
      "ìĸµ": 755,
      "ì¤Ħ": 756,
      "ê²Ģ": 757,
      "ëıħ": 758,
      "ì¢Ģ": 759,
      "ì¿": 760,
      "ë³ĳ": 761,
      "ìĤ¬ìĿ´": 762,
      "ì£¼ìĦ¸ìļĶ": 763,
      "ëĲł": 764,
      "ì°½": 765,
      "íķĺìĹ¬": 766,
      "ìª½": 767,
      "ë¹ł": 768,
      "ë§İìĿ´": 769,
      "ê°Ī": 770,
      "ë°±": 771,
      "ëĲĺëĬĶ": 772,
      "ìłľíĴĪ": 773,
      "ê²½ìļ°": 774,
      "ì¡±": 775,
      "íķĺëĭ¤": 776,
      "ì·": 777,
      "ë²ł": 778,
      "ì±Ħ": 779,
      "ëł¨": 780,
      "ëķĮë¬¸": 781,
      "ìĩ": 782,
      "ê·¸ë¦¬ê³ł": 783,
      "ìĵ°": 784,
      "ìķŀ": 785,
      "ê²¨": 786,
      "ìĸ´ëĸ": 787,
      "ëłĩê²Į": 788,
      "ê·ľ": 789,
      "ì¶ķ": 790,
      "íģ´": 791,
      "ìĹĦ": 792,
      "ë¡ł": 793,
      "ìį": 794,
      "ì·¨": 795,
      "ìĶ¨": 796,
      "ê°Ģì§Ģ": 797,
      "ì§Ģê¸Ī": 798,
      "ìĻĶ": 799,
      "ë¥ĺ": 800,
      "ëŃĲ": 801,
      "ë¶ģ": 802,
      "ëĪĪ": 803,
      "ëĭ¤ë¥¸": 804,
      "ìĺ¤ëĬĺ": 805,
      "íķĳ": 806,
      "ìľ¼ë©´": 807,
      "íĮ¨": 808,
      "ì¼Ģ": 809,
      "ì¢ĭìĿĢ": 810,
      "ìĿ´ìĥģ": 811,
      "ê·¸ëŁ°": 812,
      "íķ´ìķ¼": 813,
      "ë³´ê³ł": 814,
      "ì§ľ": 815,
      "ìĸ´ìĦľ": 816,
      "ë³¼": 817,
      "íľ": 818,
      "ìĽĢ": 819,
      "ëĵ¯": 820,
      "ëĭ¤ëĬĶ": 821,
      "íĻ©": 822,
      "ìłĦë¬¸": 823,
      "ìĿ´ëĤĺ": 824,
      "íı°": 825,
      "ê·¸ëŁ¬": 826,
      "ìĤ¼": 827,
      "ì§ĢìĹŃ": 828,
      "ì°©": 829,
      "ì§ĢëĤľ": 830,
      "íķľêµŃ": 831,
      "ì¶©": 832,
      "ëŀľ": 833,
      "ìĹĶ": 834,
      "ê°ĲìĤ¬": 835,
      "ê¸´": 836,
      "ì°¾": 837,
      "ëĴ": 838,
      "ìħ¨": 839,
      "íķ¨ê»ĺ": 840,
      "ëľ": 841,
      "ëĦĺ": 842,
      "ê²¬": 843,
      "ìŀ¡": 844,
      "íŀĺ": 845,
      "ì¹¨": 846,
      "ì³": 847,
      "ìĬ¤íĬ¸": 848,
      "©ëĭĪëĭ¤": 849,
      "ë¦´": 850,
      "ìĹĲëıĦ": 851,
      "ëĭĪê¹Į": 852,
      "íĺ¼": 853,
      "ëįĶëĿ¼": 854,
      "ìĩ¼": 855,
      "ëħĢ": 856,
      "ì´Ŀ": 857,
      "ë´Ĳ": 858,
      "íĻķìĿ¸": 859,
      "ëĲĺìĸ´": 860,
      "ìłķë§Ĳ": 861,
      "ì¢ĭìķĦ": 862,
      "ìľĦíķ´": 863,
      "ìĿ´ë²Ī": 864,
      "íĹĪ": 865,
      "ëĭ¤ìĭľ": 866,
      "íĥģ": 867,
      "ìģ": 868,
      "ìĹĨëĬĶ": 869,
      "ìĿ´ìĸ´": 870,
      "ë¬¸ìłľ": 871,
      "íį": 872,
      "ìķħ": 873,
      "ìĿµ": 874,
      "ê¾": 875,
      "ìķ¡": 876,
      "ëª°": 877,
      "ë°Ķë¡ľ": 878,
      "ëĥ¥": 879,
      "ì¿ł": 880,
      "ëĲ©ëĭĪëĭ¤": 881,
      "ë§İìĿĢ": 882,
      "ëĲľëĭ¤": 883,
      "íį¼": 884,
      "ìĦľìļ¸": 885,
      "ê·Ģ": 886,
      "íĺĳ": 887,
      "ìĿ¸ëį°": 888,
      "ìłķë³´": 889,
      "íķĺì§Ģë§Į": 890,
      "ìĭľìŀĳ": 891,
      "ë²Į": 892,
      "ìĿ´ëĿ¼ê³ł": 893,
      "ëĲĲ": 894,
      "ê³¨": 895,
      "ëŁ½": 896,
      "ëł¸": 897,
      "íĮħ": 898,
      "ëĨĴ": 899,
      "ëłĪìĿ´": 900,
      "ìĦ¼": 901,
      "ëī": 902,
      "ìĹĨìĿ´": 903,
      "ì£¼ìĭľ": 904,
      "ìĿĳ": 905,
      "ë¶Ģë¶Ħ": 906,
      "êµ¬ë§¤": 907,
      "ëĨĵ": 908,
      "ì¡´": 909,
      "íĶĦë¡ľ": 910,
      "ê¸°ìĹħ": 911,
      "íķĦìļĶ": 912,
      "ë¬´ë£Į": 913,
      "ìĿ´ê³ł": 914,
      "ë¿": 915,
      "ê½": 916,
      "ê°ĻìķĦ": 917,
      "ì¹´íİĺ": 918,
      "íķĺë©°": 919,
      "ìķĦëĭ": 920,
      "ìĿ´ëŁ°": 921,
      "ì²ł": 922,
      "ìŀĪìľ¼": 923,
      "ìĭľìŀ¥": 924,
      "ë°Ķëŀ": 925,
      "ì§ĢìĽĲ": 926,
      "ëĮĢë¡ľ": 927,
      "ëĶ°ëĿ¼": 928,
      "íĥĪ": 929,
      "ìĭ¸": 930,
      "ì¡Į": 931,
      "ìĹĲìļĶ": 932,
      "ë°©ë²ķ": 933,
      "ëī´": 934,
      "ìĤ¬ìĹħ": 935,
      "êµĲìľ¡": 936,
      "ìĥģíĴĪ": 937,
      "ì§Ħíĸī": 938,
      "íļ¨": 939,
      "ëł¹": 940,
      "Ķëĭ¤": 941,
      "ì§¸": 942,
      "ì°į": 943,
      "ëĿ¼ëĬĶ": 944,
      "ê·¹": 945,
      "ëĴ¤": 946,
      "įëĭĪëĭ¤": 947,
      "íĨµíķ´": 948,
      "ëª¨ëĳĲ": 949,
      "ë¨¼": 950,
      "ìĤŃ": 951,
      "ëģĿ": 952,
      "ê¾¸": 953,
      "ì³Ĳ": 954,
      "íģ°": 955,
      "ë§ĪìĿĮ": 956,
      "ëıĦë¡Ŀ": 957,
      "íĻį": 958,
      "ë´ī": 959,
      "ëĨĢ": 960,
      "ìĿ´ìļ©": 961,
      "êº": 962,
      "íķĺìĦ¸ìļĶ": 963,
      "ê²Įìĭľ": 964,
      "ìĩ¼íķĳ": 965,
      "ì²ĺëŁ¼": 966,
      "ìį¨": 967,
      "ìķĪìłĦ": 968,
      "íķĻêµĲ": 969,
      "ëłĮ": 970,
      "ìŀĪìĹĪ": 971,
      "ìĹĲìĦľëĬĶ": 972,
      "ì¸ł": 973,
      "ë§ģ": 974,
      "ê°ĢëĬĶ": 975,
      "ëĵĿ": 976,
      "ê°Ŀ": 977,
      "ìķĺëĭ¤": 978,
      "ëģ¼": 979,
      "ìĬ¤íĥĢ": 980,
      "ê²łìĬµëĭĪëĭ¤": 981,
      "íļį": 982,
      "ê·¸ëĥ¥": 983,
      "ê°ĻìĿ´": 984,
      "ê°Ģìŀ¥": 985,
      "ë°Ŀ": 986,
      "ìĿ´ìłľ": 987,
      "íľ´": 988,
      "ë¦½ëĭĪëĭ¤": 989,
      "ìŀł": 990,
      "ìŀĪìĿĦ": 991,
      "ìŀĲìĭł": 992,
      "ëĥĲ": 993,
      "ê²½ê¸°": 994,
      "ìĿ´ìķ¼": 995,
      "ëĿ¼ìĿ´": 996,
      "ìĻľ": 997,
      "ìµľëĮĢ": 998,
      "ë³´ìĿ´": 999,
      "ë°°ìĨ¡": 1000,
      "ê´Ģë¦¬": 1001,
      "ë°Ģ": 1002,
      "ìĿ´ëłĩê²Į": 1003,
      "íĺ¹": 1004,
      "ìĹ¬ê¸°": 1005,
      "ëĤ´ìļ©": 1006,
      "ë¦¬ëĬĶ": 1007,
      "ê¼Ń": 1008,
      "ëįĶëĿ¼êµ¬": 1009,
      "ë³´ëĭĪ": 1010,
      "ëª¨ëĵł": 1011,
      "ìĤ¬ëŀĳ": 1012,
      "ë²Ķ": 1013,
      "ëĨį": 1014,
      "ìĹ¬íĸī": 1015,
      "ì¹´ëĵľ": 1016,
      "ëĤĺìĺ¤": 1017,
      "ìĦ¤ëªħ": 1018,
      "ê°ĳ": 1019,
      "íĴĢ": 1020,
      "ëĭ¤ìĿĮ": 1021,
      "ëª¨ë¥´": 1022,
      "ëĭ¤ê°Ģ": 1023,
      "ëĲĺê³ł": 1024,
      "ì¹ľêµ¬": 1025,
      "êº¼": 1026,
      "ì°°": 1027,
      "ê±°ëĤĺ": 1028,
      "íĮĶ": 1029,
      "ìĥģëĭ´": 1030,
      "ì¤Ģë¹Ħ": 1031,
      "ìĺĢëĭ¤": 1032,
      "ìĥģíĥľ": 1033,
      "ìķĦìĦľ": 1034,
      "íĺľ": 1035,
      "ëĮĢíĳľ": 1036,
      "íĥĦ": 1037,
      "ì£½": 1038,
      "ê¿": 1039,
      "ìī¬": 1040,
      "ìľ¨": 1041,
      "ìĮ": 1042,
      "ëĦ£": 1043,
      "ëªĩ": 1044,
      "ì¶Ķì²ľ": 1045,
      "ê´Ģëł¨": 1046,
      "ì°¬": 1047,
      "ëŀľëĵľ": 1048,
      "íĻľëıĻ": 1049,
      "íķĺë©´ìĦľ": 1050,
      "ê¶ģ": 1051,
      "ë²¤": 1052,
      "ì¤ĳê³ł": 1053,
      "ëª¨ìĬµ": 1054,
      "ìĤ¬ìĭ¤": 1055,
      "ìĤŃìłľ": 1056,
      "ìĽĥ": 1057,
      "ìĬ¬": 1058,
      "ì¸µ": 1059,
      "ê·¸ëŀĺìĦľ": 1060,
      "ìĿ´ì§Ģ": 1061,
      "ë´¤": 1062,
      "ëıĻìķĪ": 1063,
      "ìºĲ": 1064,
      "ëĵľë¦½ëĭĪëĭ¤": 1065,
      "ì²«": 1066,
      "íıŃ": 1067,
      "ì¦Ĳ": 1068,
      "ëĶ©": 1069,
      "íķĺëĬĶëį°": 1070,
      "ìŀĲë¦¬": 1071,
      "ìĺ¥": 1072,
      "ëıĪ": 1073,
      "íĴį": 1074,
      "ê°ľìĿ¸": 1075,
      "ìĨĮë¦¬": 1076,
      "ì¶Ķê°Ģ": 1077,
      "ì¡°ê¸Ī": 1078,
      "ìĻķ": 1079,
      "ìĪĻ": 1080,
      "ëĳĺ": 1081,
      "ì²ĺìĿĮ": 1082,
      "íĺĦìŀ¬": 1083,
      "ìŁ": 1084,
      "ìľĦíķľ": 1085,
      "íķľë²Ī": 1086,
      "ëĬĲëĤ": 1087,
      "ì§Ħì§ľ": 1088,
      "íĩ": 1089,
      "ìĭŃ": 1090,
      "ì¼ĵ": 1091,
      "ë¹ĦìĬ¤": 1092,
      "íĩ´": 1093,
      "ë¶Ģíĥģ": 1094,
      "ê¹¨": 1095,
      "ëĿ¼ìĿ¸": 1096,
      "ë³´ëĤ´": 1097,
      "ìĹħì²´": 1098,
      "ê±°ë¦¬": 1099,
      "ë³´ë©´": 1100,
      "íħĶ": 1101,
      "ëĭ¤ìĸĳ": 1102,
      "íĸĪëĬĶëį°": 1103,
      "íĬ¹ê°Ģ": 1104,
      "ìķĶ": 1105,
      "ìķĦëĭĮ": 1106,
      "ìĹ¬ëŁ¬": 1107,
      "ê´Ģê³Ħ": 1108,
      "ìŀĲê¸°": 1109,
      "ìŀĪê³ł": 1110,
      "íĮĢ": 1111,
      "ìĹ¼": 1112,
      "ëı¼": 1113,
      "êµ´": 1114,
      "ì¸¡": 1115,
      "ì£¼ëĬĶ": 1116,
      "ìķĦì§ģ": 1117,
      "ìĹŃìĭľ": 1118,
      "ìĿ¸ì§Ģ": 1119,
      "ëł¤ê³ł": 1120,
      "ë°¥": 1121,
      "ëĲĺìĹĪ": 1122,
      "ëª¸": 1123,
      "ê·¸ëŀ": 1124,
      "ìĿ´ê±°": 1125,
      "íĸĪìĬµëĭĪëĭ¤": 1126,
      "ìĹ°ëĿ½": 1127,
      "ì»¨": 1128,
      "ìķĦë¬´": 1129,
      "ìķĦëĭĪëĿ¼": 1130,
      "íķĺë£¨": 1131,
      "ì§ĢëĬĶ": 1132,
      "íĺĢ": 1133,
      "th": 1134,
      "ìĽ¨": 1135,
      "ìĦ¸ê³Ħ": 1136,
      "ìķĬëĬĶ": 1137,
      "ë¯¸êµŃ": 1138,
      "ìľ¼ë©°": 1139,
      "ìļķ": 1140,
      "ì§Īë¬¸": 1141,
      "íģ¼": 1142,
      "ìĭłì²Ń": 1143,
      "ì£¼ë¬¸": 1144,
      "ê³¡": 1145,
      "íĻĪ": 1146,
      "ìĸ´ëĸ¤": 1147,
      "ìŀĶ": 1148,
      "ìŀĪëĬĶëį°": 1149,
      "ë¦Ń": 1150,
      "ìĥģíĻ©": 1151,
      "ëįķ": 1152,
      "íĹ¤": 1153,
      "ì§ģìłĳ": 1154,
      "íħľ": 1155,
      "ëĤĺëĿ¼": 1156,
      "êµ¬ìŀħ": 1157,
      "ìŁģ": 1158,
      "ê½ĥ": 1159,
      "ìī½": 1160,
      "ìļ´ìĺģ": 1161,
      "ëĮĢíķ´": 1162,
      "ìķĮëł¤": 1163,
      "ìĦľë¹ĦìĬ¤": 1164,
      "ë¹¨": 1165,
      "ê·¼ëį°": 1166,
      "ìĸ´ëĸ»": 1167,
      "ëĮĢìĥģ": 1168,
      "ìĿ´ë¯¸": 1169,
      "ìĿ´ìķ¼ê¸°": 1170,
      "ë¡Ģ": 1171,
      "ëĭ¤ë©´": 1172,
      "ë²½": 1173,
      "ë§¤ìĿ¼": 1174,
      "ì»´": 1175,
      "ëĲĲëĭ¤": 1176,
      "íĪ¬ìŀĲ": 1177,
      "ì¼ľ": 1178,
      "ìĿ´ëĿ¼ëĬĶ": 1179,
      "ìĭľë©´": 1180,
      "ëĤ¬": 1181,
      "ë°ĸ": 1182,
      "ì§ķ": 1183,
      "ë§Įëĵ¤": 1184,
      "ìŀĪìĸ´ìĦľ": 1185,
      "ê²ĮìŀĦ": 1186,
      "ìĸ´ëĶĶ": 1187,
      "ìĶ©": 1188,
      "ë³´íĹĺ": 1189,
      "ë¶Ļ": 1190,
      "ìĤ¬íļĮ": 1191,
      "ìĦ¼íĦ°": 1192,
      "ìĿ¼ë³¸": 1193,
      "ì¤ĳêµŃ": 1194,
      "ìĿ´ìľł": 1195,
      "ë§Įëĵ¤ìĸ´": 1196,
      "ë¿Ĳ": 1197,
      "ê·¸ëłĩ": 1198,
      "ìĸ´ëĸ»ê²Į": 1199,
      "ìĿ¸íĦ°": 1200,
      "ëıĮìķĦ": 1201,
      "ê²łëĭ¤": 1202,
      "ìłĦíĻĶ": 1203,
      "ê³ĦìĨį": 1204,
      "ìłĢíĿ¬": 1205,
      "ë°ĶëŀįëĭĪëĭ¤": 1206,
      "ë§ĺ": 1207,
      "ìĹĦë§Ī": 1208,
      "íķ´ëıĦ": 1209,
      "ìŀĳìĦ±": 1210,
      "íĸĪìĸ´": 1211,
      "ìĿ´íĬ¸": 1212,
      "íĭĢ": 1213,
      "ë§ĲíĸĪëĭ¤": 1214,
      "ì°®": 1215,
      "ìĿ´ë¦Ħ": 1216,
      "ë°Ŀíĺ": 1217,
      "ë¹Į": 1218,
      "ìłķë¶Ģ": 1219,
      "ìĿ´ìĹĪ": 1220,
      "ë¨¸ë¦¬": 1221,
      "ìĤ¬ìĿ´ì¦Ī": 1222,
      "ìĺģíĻĶ": 1223,
      "ì°¾ìķĦ": 1224,
      "ìĿ´íĽĦ": 1225,
      "ë¥ł": 1226,
      "íļĮìĽĲ": 1227,
      "ìĿ´ìĬ¤": 1228,
      "íĸĪëįĺ": 1229,
      "ëĺĲíķľ": 1230,
      "ìĸ¼ë§Ī": 1231,
      "ìĺĪìłķ": 1232,
      "íķĺìĭľëĬĶ": 1233,
      "ê´ľ": 1234,
      "ì£¼ê³ł": 1235,
      "ì£Ħ": 1236,
      "ìĬĪ": 1237,
      "ìļĶìĿ¼": 1238,
      "ìłľê³µ": 1239,
      "the": 1240,
      "íĬ¹íŀĪ": 1241,
      "ëĬĲëĤĮ": 1242,
      "ìĺ¤ëĬĶ": 1243,
      "ìĦłíĥĿ": 1244,
      "ìĻĦë£Į": 1245,
      "ìĬ¤ë§Ī": 1246,
      "ê³Ħíļį": 1247,
      "ê°ĢìĦľ": 1248,
      "íĸīìĤ¬": 1249,
      "ìĥĿíĻľ": 1250,
      "ë§Įíģ¼": 1251,
      "ê·¸ëŁ¼": 1252,
      "ìĿ½": 1253,
      "ìħĶìĦľ": 1254,
      "ìķĬê³ł": 1255,
      "ë°ĽìķĦ": 1256,
      "êµŃëĤ´": 1257,
      "ëĶ±": 1258,
      "íĥĿë°°": 1259,
      "ìļ±": 1260,
      "ìģĺ": 1261,
      "ê°Ģìŀħ": 1262,
      "ìŀĲëıĻ": 1263,
      "ìĭľëĬĶ": 1264,
      "ëĭµëĭĪëĭ¤": 1265,
      "ê²ģ": 1266,
      "ìľ¤": 1267,
      "ëĸ¨": 1268,
      "ìĿ¸ê°Ģ": 1269,
      "ë¬¸íĻĶ": 1270,
      "ìĹ°êµ¬": 1271,
      "ê²½ìłľ": 1272,
      "ì§Ŀ": 1273,
      "ì¦ĺ": 1274,
      "íħĲ": 1275,
      "ì²ĺë¦¬": 1276,
      "ëħĲ": 1277,
      "ë¬¸ìĿĺ": 1278,
      "íķĺìĭł": 1279,
      "ë°©ë¬¸": 1280,
      "ê°ĸ": 1281,
      "ë³´ìĹ¬": 1282,
      "ëħ¼": 1283,
      "ê¸°ê°Ħ": 1284,
      "íļĮìĤ¬": 1285,
      "íķĻìĽĲ": 1286,
      "ê²°ê³¼": 1287,
      "ë°ĿíĺĶëĭ¤": 1288,
      "ë·": 1289,
      "ëĮĵ": 1290,
      "íı¬íķ¨": 1291,
      "ë°¤": 1292,
      "ìľĦì¹ĺ": 1293,
      "ì¦ī": 1294,
      "ìĹ¬ìŀĲ": 1295,
      "íĬ¼": 1296,
      "ë¨¹ê³ł": 1297,
      "ê¸°ëĮĢ": 1298,
      "ë³ĳìĽĲ": 1299,
      "ê¸°ìĪł": 1300,
      "ìľĦìĽĲ": 1301,
      "ë¡ľìļ´": 1302,
      "íĽĪ": 1303,
      "ê°ľë°ľ": 1304,
      "ëħķ": 1305,
      "ëĵľë¦¬": 1306,
      "ìĬ¨": 1307,
      "ê°Ķ": 1308,
      "ìĿĺìĽĲ": 1309,
      "íķĻìĥĿ": 1310,
      "ëĤ¨ìŀĲ": 1311,
      "ìĨĶ": 1312,
      "ê°Ģì¡±": 1313,
      "ì¢Į": 1314,
      "íĳ¸": 1315,
      "ìķĦëŀĺ": 1316,
      "ì¤ĳìļĶ": 1317,
      "ìĤ¬íķŃ": 1318,
      "ê°ľìĽĶ": 1319,
      "ëĸł": 1320,
      "ë¨¼ìłĢ": 1321,
      "ìĹĨìĸ´": 1322,
      "ê±´ê°ķ": 1323,
      "ë´Ħ": 1324,
      "ìļ´ëıĻ": 1325,
      "ë¶ĢìĤ°": 1326,
      "ê·ł": 1327,
      "ë¹ĦêµĲ": 1328,
      "ì§Ģê³ł": 1329,
      "ë¡¯": 1330,
      "ìľµ": 1331,
      "ëĦ·": 1332,
      "ì°Į": 1333,
      "ê¸°ì¤Ģ": 1334,
      "ìĶĢ": 1335,
      "ì²¨": 1336,
      "ëįĶëĭĪ": 1337,
      "ìĿ´ë²¤": 1338,
      "ì½ĺ": 1339,
      "ë§¨": 1340,
      "ìĺ¬ëĿ¼": 1341,
      "ëľ»": 1342,
      "ê¸°ìŀ¬": 1343,
      "ê·¸ëŀĺëıĦ": 1344,
      "ìĿ´ë©°": 1345,
      "ê³łê°Ŀ": 1346,
      "ìĦłë¬¼": 1347,
      "ìµľê³ł": 1348,
      "ë°©ìĨ¡": 1349,
      "ìķĦì£¼": 1350,
      "ìĹĩ": 1351,
      "ìĿ´ë²¤íĬ¸": 1352,
      "ëĵľëł¤": 1353,
      "ëĪĦêµ¬": 1354,
      "ë§ŀì¶": 1355,
      "ë»": 1356,
      "ìĦ¤ì¹ĺ": 1357,
      "ìłķíĻķ": 1358,
      "ìĭľê³ł": 1359,
      "ìĿĢíĸī": 1360,
      "ë¸Įëŀľëĵľ": 1361,
      "ìŀĩ": 1362,
      "ìĹĨëĭ¤": 1363,
      "ë³´ëĬĶ": 1364,
      "ëĦĲ": 1365,
      "íĿĲ": 1366,
      "ë§ĲìĶĢ": 1367,
      "ìĭľê¸°": 1368,
      "íĺĦëĮĢ": 1369,
      "ìĬ¤íģ¬": 1370,
      "ìķĻ": 1371,
      "ìĹĺ": 1372,
      "ìµľê·¼": 1373,
      "ìļĶì¦ĺ": 1374,
      "ì©": 1375,
      "ëĵľë¦´": 1376,
      "ëĭ¥": 1377,
      "ëĤĺìĦľ": 1378,
      "ì¹ĺë£Į": 1379,
      "ê·¸ëłĩê²Į": 1380,
      "ìķĪëħķ": 1381,
      "íĮĮíĬ¸": 1382,
      "ëĶĶìŀĲ": 1383,
      "ìĺ·": 1384,
      "ëĮĢíķĻ": 1385,
      "ìĿ¼ë°ĺ": 1386,
      "ìĺ¬íķ´": 1387,
      "ìĿ´ê¸°": 1388,
      "íĿ¥": 1389,
      "ìłľìŀĳ": 1390,
      "ìĺĪìķ½": 1391,
      "ìģľ": 1392,
      "íıĲ": 1393,
      "íĽĦê¸°": 1394,
      "ëıĦìĭľ": 1395,
      "ëĤĺíĥĢ": 1396,
      "ê´ľì°®": 1397,
      "ê³µìĭĿ": 1398,
      "ê·¸ëŀ¨": 1399,
      "ìĿ´ìĤ¬": 1400,
      "ìķĬìĿĢ": 1401,
      "ìĸ´ëĬĲ": 1402,
      "ëį¸": 1403,
      "ìłĦêµŃ": 1404,
      "ê³¼ìłķ": 1405,
      "ëĮĵê¸Ģ": 1406,
      "êµŃë¯¼": 1407,
      "ë½": 1408,
      "íĻĺê²½": 1409,
      "ë²Īíĺ¸": 1410,
      "íĬ¹ë³Ħ": 1411,
      "ìĤ¼ìĦ±": 1412,
      "íķľíħĮ": 1413,
      "ìĿ´ëŀĳ": 1414,
      "ìĹĲìĦľëıĦ": 1415,
      "ìŀĪìĹĪëĭ¤": 1416,
      "íķĺëĭĪ": 1417,
      "ë³´ê¸°": 1418,
      "ìĸ¸ìłľ": 1419,
      "ëģĶ": 1420,
      "ìķĮìķĦ": 1421,
      "ì¹ł": 1422,
      "ìĹ¬ìĦ±": 1423,
      "íĮ¬": 1424,
      "íĶ¼ë¶Ģ": 1425,
      "ë²Īì§¸": 1426,
      "ìľ¼ëĭĪ": 1427,
      "ìķķ": 1428,
      "ê¹Ķ": 1429,
      "ìĭ¶ìĿĢ": 1430,
      "ìĭ±": 1431,
      "ë¶Ħìĸĳ": 1432,
      "ë¬¼ë¡ł": 1433,
      "ìĺĪìļĶ": 1434,
      "ëĲĺë©´": 1435,
      "ëıĦìĽĢ": 1436,
      "ìĻĢìĦľ": 1437,
      "íķĺëĦ¤": 1438,
      "ìĭľìĬ¤": 1439,
      "íļ¨ê³¼": 1440,
      "ëĤĺëĬĶ": 1441,
      "ëĭ¤ëĭĪ": 1442,
      "ì»¬": 1443,
      "ëĲĺì§Ģ": 1444,
      "ë¦¬ìķĦ": 1445,
      "ë¹Ī": 1446,
      "ë°ľìĥĿ": 1447,
      "ê¸°ë¡Ŀ": 1448,
      "ê¶ģê¸Ī": 1449,
      "ì¡Įëĭ¤": 1450,
      "ê²łìĸ´": 1451,
      "ì§ģê±°ëŀĺ": 1452,
      "ìı": 1453,
      "ì°¨ëŁī": 1454,
      "ëĤĺìĿ´": 1455,
      "ìĹĪëĬĶëį°": 1456,
      "íĢ": 1457,
      "ìłľì£¼": 1458,
      "ìĻĦìłĦ": 1459,
      "ìĤ¬ê³ł": 1460,
      "ëĤ®": 1461,
      "ê±±": 1462,
      "ê¸°ë³¸": 1463,
      "ë§¥": 1464,
      "ê¸°ëĭ¤": 1465,
      "ì°¸ìĹ¬": 1466,
      "ê³łë¯¼": 1467,
      "ìľĦê¸°": 1468,
      "ë§Īëĭ¤": 1469,
      "ìĤ°ìĹħ": 1470,
      "ëļ": 1471,
      "ì§Ĳ": 1472,
      "ë³´ìĦ¸ìļĶ": 1473,
      "ëª¬": 1474,
      "ë°Ľê³ł": 1475,
      "íĤ¨": 1476,
      "10": 1477,
      "ê³¤": 1478,
      "ì£¼ìĿĺ": 1479,
      "ì´ī": 1480,
      "ìĺ¤íĽĦ": 1481,
      "ëĵ±ë¡Ŀ": 1482,
      "ëľ¨": 1483,
      "ëĸ¨ìĸ´": 1484,
      "ëĬĶì§Ģ": 1485,
      "ìĺģìĥģ": 1486,
      "ë§Īì§Ģ": 1487,
      "íıīê°Ģ": 1488,
      "ìĺ¬ëł¤": 1489,
      "ëĭµë³Ģ": 1490,
      "ìĸ´ëł¤": 1491,
      "ê¼¬": 1492,
      "ìĿĦê¹Į": 1493,
      "êµ¬ìĦ±": 1494,
      "ê¸°ìŀĲ": 1495,
      "ì¤ĺ": 1496,
      "ì§ĢëĤĺ": 1497,
      "ëĶĶìŀĲìĿ¸": 1498,
      "ìĿ´ìĹĲìļĶ": 1499,
      "ìķĮê³ł": 1500,
      "ëį°ìĿ´": 1501,
      "ìĺģìĸ´": 1502,
      "íĨ¡": 1503,
      "ê´Ģìĭ¬": 1504,
      "íĿ¬ë§Ŀ": 1505,
      "íĻĢ": 1506,
      "íķĺìĭľë©´": 1507,
      "ê°Ģì§Ģê³ł": 1508,
      "ìĿ´ìĹĪëĭ¤": 1509,
      "ë·°": 1510,
      "ìĤ¬ìĿ´íĬ¸": 1511,
      "íĶĦë¦¬": 1512,
      "ë§Īì§Ģë§ī": 1513,
      "ìĬ¤íĦ°": 1514,
      "ë¹Ľ": 1515,
      "ìķĬìķĺ": 1516,
      "íĥķ": 1517,
      "ê±±ìłķ": 1518,
      "ìĸĺ": 1519,
      "ìĿ´ëŁ¬": 1520,
      "ë¹Ħìļ©": 1521,
      "ëĺĲëĬĶ": 1522,
      "ìŀĳìĹħ": 1523,
      "íķ´ëĭ¹": 1524,
      "ìĿ´ëĤł": 1525,
      "ì¡°ìĤ¬": 1526,
      "íĺ¹ìĭľ": 1527,
      "ë¯¿": 1528,
      "ìĹĦì²Ń": 1529,
      "ê²°ìłķ": 1530,
      "ìĨĮê°ľ": 1531,
      "ê±°ëĵł": 1532,
      "ê¸Īìľµ": 1533,
      "ëŀĮ": 1534,
      "ìŀĪê²Į": 1535,
      "ì²Ļ": 1536,
      "ê³łê¸°": 1537,
      "ìķĦì¹¨": 1538,
      "ëģĮ": 1539,
      "ê·¸ê±°": 1540,
      "íĺľíĥĿ": 1541,
      "ì£¼íĥĿ": 1542,
      "ìłĦì²´": 1543,
      "ì°¸ê³ł": 1544,
      "ìĽł": 1545,
      "ëįĶìļ±": 1546,
      "ìĿ¼ëĭ¨": 1547,
      "ê·¸ëŁ¬ëĤĺ": 1548,
      "íĺ¸íħĶ": 1549,
      "ê¸°ê´Ģ": 1550,
      "íķĺìĺĢ": 1551,
      "ê±°ìĿĺ": 1552,
      "ê³µë¶Ģ": 1553,
      "ì¥": 1554,
      "ìĿ¸ì²ľ": 1555,
      "ìĥģìĦ¸": 1556,
      "íķĺìħ¨": 1557,
      "ìĿĮìĭĿ": 1558,
      "ê³µê°ľ": 1559,
      "ì§Ģì§Ģ": 1560,
      "ë£¸": 1561,
      "ëł´": 1562,
      "ìĹ¬ë¦Ħ": 1563,
      "ì½ľ": 1564,
      "ëĮĢì¶ľ": 1565,
      "íķĺìŀĲ": 1566,
      "êµŃê°Ģ": 1567,
      "ë¦¬ìĬ¤": 1568,
      "ëłĪìĬ¤": 1569,
      "ëŀµ": 1570,
      "íĸīë³µ": 1571,
      "ê°Ģê³ł": 1572,
      "ìĸ¼êµ´": 1573,
      "ìĦłìĪĺ": 1574,
      "ìĸ´ë¦°": 1575,
      "íĺģ": 1576,
      "ì²ŃìĨĮ": 1577,
      "íĨµëł¹": 1578,
      "ë¯Ģ": 1579,
      "ìĭľíĤ¤": 1580,
      "of": 1581,
      "ìķĦíĮĮíĬ¸": 1582,
      "íĶĦë¡ľê·¸ëŀ¨": 1583,
      "íķľëĭ¤ê³ł": 1584,
      "ë£©": 1585,
      "ì¡°ê±´": 1586,
      "ë°°ìļ°": 1587,
      "ìĤ¬ë¬´": 1588,
      "ëŁŃ": 1589,
      "ê·¸ëŁ°ëį°": 1590,
      "ìĭľìķĦ": 1591,
      "ë§ĮëĤĺ": 1592,
      "ìĺĨ": 1593,
      "ê¸°ëĬ¥": 1594,
      "ì¯": 1595,
      "ê¸°ìĸµ": 1596,
      "ëĮĢíĨµëł¹": 1597,
      "ëª¨ëį¸": 1598,
      "ë¨¸ëĭĪ": 1599,
      "ìĦ±ìŀ¥": 1600,
      "ë¹¼": 1601,
      "ë²¨": 1602,
      "ìŀĲì²´": 1603,
      "ëŀĻ": 1604,
      "ë¦¬ìĸ´": 1605,
      "ëĶ¸": 1606,
      "ìĿ´ëıĻ": 1607,
      "íĶĪ": 1608,
      "ìĿ¸íĦ°ëĦ·": 1609,
      "ëĮĢë¹Ħ": 1610,
      "ìĿ´íģ¬": 1611,
      "ìĿ´íķ´": 1612,
      "ëĤĺë¬´": 1613,
      "ëĭĿ": 1614,
      "ìŀĲìĹ°": 1615,
      "ì¿łíı°": 1616,
      "íĵ": 1617,
      "ì¹Ń": 1618,
      "ìĹĲìĸ´": 1619,
      "ìŀĪëĭ¤ëĬĶ": 1620,
      "ëĭ¤ìļ´": 1621,
      "ê°Ģìļ´": 1622,
      "ê³µê°Ħ": 1623,
      "íĶ½": 1624,
      "ëĤ´ëł¤": 1625,
      "ħëĭĪëĭ¤": 1626,
      "ëĥī": 1627,
      "ë¬¸ìŀĲ": 1628,
      "ìĻĶëĭ¤": 1629,
      "ìĥĪë¡ľìļ´": 1630,
      "ê·¸ê²ĥ": 1631,
      "íķĺìĭ¤": 1632,
      "ê°Ģêµ¬": 1633,
      "ì¹¼": 1634,
      "ìĹĪìĸ´": 1635,
      "ìĿ´ë©´": 1636,
      "ê³Ħìķ½": 1637,
      "ë¡ľê·¸": 1638,
      "ìĿ´ê²ĥ": 1639,
      "íĤ¹": 1640,
      "ê¿Ī": 1641,
      "ìĺ¥ìħĺ": 1642,
      "ëĿ¼ëıĦ": 1643,
      "ë°ĶëŀĮ": 1644,
      "ë©Ģ": 1645,
      "ëĬ¦": 1646,
      "íĺĪ": 1647,
      "íĶ¼ìĬ¤": 1648,
      "ìŀĪëĭ¤ê³ł": 1649,
      "ë²¼": 1650,
      "ìºł": 1651,
      "ìķĦê¸°": 1652,
      "ìĭľìĦ¤": 1653,
      "íĵ¨": 1654,
      "ë§Įì¡±": 1655,
      "ìķĬìķĦ": 1656,
      "ì§Ģë°©": 1657,
      "ìĥ¤": 1658,
      "ìłĦìŀĲ": 1659,
      "ëĤ©": 1660,
      "ëĵ£": 1661,
      "ìĸ»": 1662,
      "ìĦ±ê³µ": 1663,
      "ìĪ¨": 1664,
      "ìŀĲìĦ¸": 1665,
      "ë¨¹ìĸ´": 1666,
      "ê²°íĺ¼": 1667,
      "ì°¨ìĿ´": 1668,
      "ë°ĽìĿĢ": 1669,
      "ë¥´ë©´": 1670,
      "ëĭī": 1671,
      "ëĽ": 1672,
      "ìŀĳìĿĢ": 1673,
      "ëħģ": 1674,
      "ì¦Į": 1675,
      "ì´¬": 1676,
      "ìķ¤": 1677,
      "ëĮĢêµ¬": 1678,
      "ë§¤ìŀ¥": 1679,
      "ê¹Ĳ": 1680,
      "ë¡Ń": 1681,
      "ìĥģëĮĢ": 1682,
      "ì¯¤": 1683,
      "ìŀĲëıĻì°¨": 1684,
      "ëĩ": 1685,
      "ìłĢëħģ": 1686,
      "ëħ¸ëł¥": 1687,
      "ìĿ¸ê¸°": 1688,
      "íĻľìļ©": 1689,
      "íĦ´": 1690,
      "ëŀĲ": 1691,
      "ëį§": 1692,
      "ìĿĺë¯¸": 1693,
      "ìŀĪëıĦë¡Ŀ": 1694,
      "ì´¬ìĺģ": 1695,
      "ëŃĶ": 1696,
      "ìĭ¤ìłľ": 1697,
      "íķľëĭ¤ëĬĶ": 1698,
      "ìĺµ": 1699,
      "ëĨĴìĿĢ": 1700,
      "ìļĶëĦ¤": 1701,
      "ìĸĳìĭĿ": 1702,
      "ìĭľíĹĺ": 1703,
      "ìħĢ": 1704,
      "ê¸°ë¶Ħ": 1705,
      "íĦ¸": 1706,
      "ê²łëĦ¤": 1707,
      "ë°ľíĳľ": 1708,
      "ë®": 1709,
      "ì±ħìŀĦ": 1710,
      "ë¬´ìĹĩ": 1711,
      "ìĺ¬ë¦¬": 1712,
      "ìĬ¤ëŁ¬": 1713,
      "ëłī": 1714,
      "íĶ¼íķ´": 1715,
      "íĸĪê³ł": 1716,
      "íĺ¼ìŀĲ": 1717,
      "ê³µìĤ¬": 1718,
      "ëĤĺìĺ¨": 1719,
      "ìĸ¸ëĭĪ": 1720,
      "íı´": 1721,
      "ìĦŃ": 1722,
      "ë²ĦìĬ¤": 1723,
      "íķ´ìĻ¸": 1724,
      "ê°Ģìłķ": 1725,
      "ìļ°ìĦł": 1726,
      "ê»ĺìĦľ": 1727,
      "ë¯Ģë¡ľ": 1728,
      "ì§ĢëĤľíķ´": 1729,
      "ì£¼ìĭľë©´": 1730,
      "ê°Ķëĭ¤": 1731,
      "ê·ľëª¨": 1732,
      "ëħ¹": 1733,
      "ìĦ¸ìĥģ": 1734,
      "ìĺ¨ëĿ¼ìĿ¸": 1735,
      "ìĿ¸ìĤ¬": 1736,
      "ëĽ°": 1737,
      "ëĤ¸": 1738,
      "ìĸĺê¸°": 1739,
      "ìĿ¸íĬ¸": 1740,
      "ì¦Ŀê°Ģ": 1741,
      "ëłµ": 1742,
      "ëĳĲê³ł": 1743,
      "ìĭ¬íŀĪ": 1744,
      "íķ´ê²°": 1745,
      "ìĦłìĥĿ": 1746,
      "ìĭľìĬ¤íħľ": 1747,
      "12": 1748,
      "ìŀĲìľł": 1749,
      "ëł¸ëĭ¤": 1750,
      "ìª½ì§Ģ": 1751,
      "ì§ĵ": 1752,
      "24": 1753,
      "íŀĺëĵ¤": 1754,
      "ìŀĸ": 1755,
      "ë©ĭ": 1756,
      "ë°ķìĬ¤": 1757,
      "ëıĦì°©": 1758,
      "ê²Ģìĥī": 1759,
      "ë°ĽëĬĶ": 1760,
      "ë¬´ë¦¬": 1761,
      "ëĤ´ìĿ¼": 1762,
      "ëĨĵê³ł": 1763,
      "ìħĶìķ¼": 1764,
      "ìķĦìĿ´ëĶĶ": 1765,
      "ë¨¹ëĬĶ": 1766,
      "ëĤĻ": 1767,
      "ìĹĨìĬµëĭĪëĭ¤": 1768,
      "ìłķì±ħ": 1769,
      "íķľíİ¸": 1770,
      "ê¸Īì§Ģ": 1771,
      "ê²ĢìĤ¬": 1772,
      "ë¶Ģëĭ´": 1773,
      "ìĸ´ëĤĺ": 1774,
      "ë¶ĦìĦĿ": 1775,
      "ìłķìĥģ": 1776,
      "ìĥģìĬ¹": 1777,
      "ì´Į": 1778,
      "ê²½íĹĺ": 1779,
      "ìµľìłĢ": 1780,
      "ëĵ¤ìĸ´ê°Ģ": 1781,
      "ì»¤íĶ¼": 1782,
      "ê²°êµŃ": 1783,
      "ê°Ģìļ´ëį°": 1784,
      "ìĬ¤íĥĢìĿ¼": 1785,
      "ìļ°ìĬ¤": 1786,
      "ëŁ´": 1787,
      "ìĿ´ëĭĪ": 1788,
      "êµŃìłľ": 1789,
      "ê·¸ë¦¼": 1790,
      "ëĵľëĬĶ": 1791,
      "ìĸ´ìłľ": 1792,
      "ë¹µ": 1793,
      "ìłĢëł´": 1794,
      "íĤ¬": 1795,
      "ìĪĺìĹħ": 1796,
      "ëĦ¤ìĿ´": 1797,
      "ìĭłê³ł": 1798,
      "ìĤ´ìķĦ": 1799,
      "ê²½ì°°": 1800,
      "ë§¤ë¬¼": 1801,
      "ê°Ļëĭ¤": 1802,
      "ê²¬ìłģ": 1803,
      "íķľëį°": 1804,
      "ê°Ĳëıħ": 1805,
      "ë¶Ģëª¨": 1806,
      "ë°ĶëĿ¼": 1807,
      "ì¶Ķì§Ħ": 1808,
      "ìĬ´": 1809,
      "ì¹Ļ": 1810,
      "ëķĲ": 1811,
      "ìĺĪìĥģ": 1812,
      "ìŀĪìľ¼ë©°": 1813,
      "íķĦìĪĺ": 1814,
      "ë²łìĿ´": 1815,
      "ìłł": 1816,
      "ëĮĢíķ´ìĦľ": 1817,
      "íľĺ": 1818,
      "ê·¸ë¦¬": 1819,
      "ìķī": 1820,
      "íĻĶìŀ¥": 1821,
      "íĺĦìŀ¥": 1822,
      "ìĪĺì¤Ģ": 1823,
      "ë°ĽìĿĦ": 1824,
      "ìľłì§Ģ": 1825,
      "ëĭ¨ì²´": 1826,
      "ì£¼ë§Ĳ": 1827,
      "ìŀĳíĴĪ": 1828,
      "ìĺģìĹħ": 1829,
      "ìĵ¸": 1830,
      "ì¦īìĭľ": 1831,
      "íĸĪì§Ģë§Į": 1832,
      "ìłķë¦¬": 1833,
      "ëĵľëĿ¼": 1834,
      "ìľ¼ëĤĺ": 1835,
      "ëĲĺìĹĪëĭ¤": 1836,
      "ëĭ¹ìĭł": 1837,
      "ìŀħìŀ¥": 1838,
      "ìĺ¤ìłĦ": 1839,
      "ìĿ´ëĦ¤": 1840,
      "íķĺëįĺ": 1841,
      "ìĺ¤ëŀĺ": 1842,
      "íķµ": 1843,
      "ëī´ìĬ¤": 1844,
      "ê²¼": 1845,
      "ìĭ¶ìĸ´": 1846,
      "ê°ĻìĬµëĭĪëĭ¤": 1847,
      "ë°Ľìľ¼": 1848,
      "ë§ĪìĿĦ": 1849,
      "ê±°ì£¼": 1850,
      "íķĺìĭľê³ł": 1851,
      "ë°ľìłĦ": 1852,
      "ëĿ¼ìĦľ": 1853,
      "ì²´íĹĺ": 1854,
      "ë§ŀì¶¤": 1855,
      "ê°ķíĻĶ": 1856,
      "ëĤĺê°Ģ": 1857,
      "ìłķìĭł": 1858,
      "ì·¨ìĹħ": 1859,
      "ìĭľì¦Į": 1860,
      "ê°Ģìł¸": 1861,
      "ë°ĸìĹĲ": 1862,
      "ìŀħê¸Ī": 1863,
      "ìĹ´ìĭ¬íŀĪ": 1864,
      "ëĭ¤ìĿ´": 1865,
      "íĥĳ": 1866,
      "ê»´": 1867,
      "ìĦ¸íĬ¸": 1868,
      "ìķĦëĵ¤": 1869,
      "ìĬ¤ëŁ½": 1870,
      "ìłģìļ©": 1871,
      "íİĺìĿ´ì§Ģ": 1872,
      "ë¹¨ë¦¬": 1873,
      "ë£¹": 1874,
      "ë¬´ìĬ¨": 1875,
      "ìĭ«": 1876,
      "ìĪĺìĪł": 1877,
      "ê¸Īìķ¡": 1878,
      "íķĺëł¤": 1879,
      "ìĿ¸ì¦Ŀ": 1880,
      "íļĮìŀ¥": 1881,
      "ìĦľë¡ľ": 1882,
      "ê´Ģê´ĳ": 1883,
      "ìī½ê²Į": 1884,
      "ì£¼ë³Ģ": 1885,
      "ë±": 1886,
      "ìĭľì¼ľ": 1887,
      "ëĵľìĭľ": 1888,
      "ëĭ¤ëħĢ": 1889,
      "íĮ©": 1890,
      "íĿĶ": 1891,
      "ê²łì§Ģë§Į": 1892,
      "ìĹĨê³ł": 1893,
      "ëģĦ": 1894,
      "íĹĮ": 1895,
      "ë§Īëł¨": 1896,
      "ë°©ìĭĿ": 1897,
      "ë´Ĳìķ¼": 1898,
      "ì¹ĺê³ł": 1899,
      "ë¸Ķë¡ľê·¸": 1900,
      "ìŀī": 1901,
      "ê¸°ì¡´": 1902,
      "ë®¤": 1903,
      "ìĤ¶": 1904,
      "íĿ¡": 1905,
      "ë¿Į": 1906,
      "ëĤ¼": 1907,
      "ìħĭ": 1908,
      "ìĨĮë¹Ħ": 1909,
      "íģ¬ê²Į": 1910,
      "ë°ĶìĿ´": 1911,
      "ëĮĢíļĮ": 1912,
      "ìŀĸìķĦ": 1913,
      "ìŀĲì£¼": 1914,
      "íĿĳ": 1915,
      "ìŀ¬ë¯¸": 1916,
      "ë¶ĦìľĦê¸°": 1917,
      "ê·¸ë£¹": 1918,
      "ê²łì£ł": 1919,
      "ìŀĪê¸°": 1920,
      "ë³´ìĿ´ëĬĶ": 1921,
      "ëıĻìĤ°": 1922,
      "ìĤ¬ê±´": 1923,
      "ëħ¸ëŀĺ": 1924,
      "ëĵľëŁ¬": 1925,
      "lg": 1926,
      "íĸĩ": 1927,
      "ìĿ¼ìłķ": 1928,
      "ë¸ĶëŀĻ": 1929,
      "ìłģë¦½": 1930,
      "ìķĺìĸ´": 1931,
      "ë¥´ê³ł": 1932,
      "ìłľëª©": 1933,
      "íķĺê²łìĬµëĭĪëĭ¤": 1934,
      "ìĿ´ëŀĢ": 1935,
      "íħĮìĿ´": 1936,
      "ì§ģìĽĲ": 1937,
      "íķŃìĥģ": 1938,
      "ë³¸ìĿ¸": 1939,
      "íķŃê³µ": 1940,
      "íķĺìĿ´": 1941,
      "ìłľìĿ¼": 1942,
      "11": 1943,
      "ì¤ĳìĭ¬": 1944,
      "ì½ĶìĬ¤": 1945,
      "ë¦¬ì§Ģ": 1946,
      "ê°ľìĦł": 1947,
      "ìľĦíķ´ìĦľ": 1948,
      "ìŀĪì§Ģë§Į": 1949,
      "íĻįë³´": 1950,
      "ìĥĿìĤ°": 1951,
      "íĨ¤": 1952,
      "êµĲíĻĺ": 1953,
      "ê±´ê°Ģ": 1954,
      "ìĦ¬": 1955,
      "ê°Ģê¹Į": 1956,
      "íĬľ": 1957,
      "ëĭ¤ë¦¬": 1958,
      "ëĭ¹ìĭľ": 1959,
      "ë¡¯ëį°": 1960,
      "ìŀĲë£Į": 1961,
      "ë¹łë¥¸": 1962,
      "ìĹĪëįĺ": 1963,
      "ìĬ¤ë§ĪíĬ¸": 1964,
      "ê¼¼": 1965,
      "ìķĬìĬµëĭĪëĭ¤": 1966,
      "ì½©": 1967,
      "ë³´ìĿ¸": 1968,
      "ì§ĢìĨį": 1969,
      "íĽĦë³´": 1970,
      "ìĸ´ì©": 1971,
      "íļĮìĿĺ": 1972,
      "ë§Ĳê³ł": 1973,
      "ìĹĪìĬµëĭĪëĭ¤": 1974,
      "ëĭ¨ì§Ģ": 1975,
      "ëĤ´ëĤ´": 1976,
      "ë§Īì¼ĵ": 1977,
      "ìłĦë§Ŀ": 1978,
      "ë§¤ìļ°": 1979,
      "ê³µëıĻ": 1980,
      "ê·¸ëĮĢë¡ľ": 1981,
      "ë©ĶìĿ¼": 1982,
      "ëĮĢìłĦ": 1983,
      "íĪ¬ìĸ´": 1984,
      "ê³µìĹ°": 1985,
      "ìĿ´ì§Ģë§Į": 1986,
      "íĸĪëĭ¤ê³ł": 1987,
      "ì¡¸": 1988,
      "ìĿ¼ë¶Ģ": 1989,
      "ìķĪëĤ´": 1990,
      "íĳľíĺĦ": 1991,
      "ìķĦë§Ī": 1992,
      "ê²¨ìļ¸": 1993,
      "ë¶Ģì¡±": 1994,
      "ëĤĺìĻĢ": 1995,
      "ìĬ¤íĨł": 1996,
      "ëĭ¹ìĿ¼": 1997,
      "íĮ¡": 1998,
      "ê°ĻìĿĢëį°": 1999,
      "ë§ģíģ¬": 2000,
      "ë³ĢíĻĶ": 2001,
      "íı¬ìĿ¸íĬ¸": 2002,
      "ìŃ": 2003,
      "ìĿĮìķħ": 2004,
      "ê²ģëĭĪëĭ¤": 2005,
      "ê°Ĵ": 2006,
      "íĻķìĭ¤": 2007,
      "ìĿ´ëĵľ": 2008,
      "ìĬ·": 2009,
      "ë³´íĺ¸": 2010,
      "ìŀĲê²©": 2011,
      "ë¥´ê²Į": 2012,
      "ê¸°íļĮ": 2013,
      "ìł¤": 2014,
      "ë°Ķê¾¸": 2015,
      "êµ¬ì¡°": 2016,
      "ìĤ¬ìŀ¥": 2017,
      "ìĬ¤íı¬": 2018,
      "ëĦĺìĸ´": 2019,
      "ëĺĳ": 2020,
      "ìŀĺëª»": 2021,
      "ìĭľëĮĢ": 2022,
      "ìłķì¹ĺ": 2023,
      "ê°Ģê¸°": 2024,
      "ëĬ¥ëł¥": 2025,
      "ëĶĶìĺ¤": 2026,
      "ëĿ¼ë©´": 2027,
      "ëįľ": 2028,
      "ì»´íĵ¨": 2029,
      "ìĿ´ì£ł": 2030,
      "ë¶Ħìķ¼": 2031,
      "ëĤĺëĪ": 2032,
      "ìľ¼ë¡ľëĬĶ": 2033,
      "ëĮĢë¶Ģë¶Ħ": 2034,
      "ì£¼ë¯¼": 2035,
      "ì«": 2036,
      "ìłľëĮĢë¡ľ": 2037,
      "ë§¡": 2038,
      "ë´ħëĭĪëĭ¤": 2039,
      "ë¥´ëĬĶ": 2040,
      "ëįĶêµ°": 2041,
      "ë©¤": 2042,
      "ê±´ìĦ¤": 2043,
      "ë¹ĦìĬ·": 2044,
      "ê·¸ëķĮ": 2045,
      "ì¶ĺ": 2046,
      "ë¶ĢëıĻìĤ°": 2047,
      "ìŀĪëįĺ": 2048,
      "ì³¤": 2049,
      "íķ¸": 2050,
      "ìĽĲëŀĺ": 2051,
      "íģ´ëŁ½": 2052,
      "ì£ĦìĨ¡": 2053,
      "ëĭ¬ëŁ¬": 2054,
      "ë§ŀëĬĶ": 2055,
      "ê±°ê¸°": 2056,
      "ê´´": 2057,
      "ì£¼ìĭł": 2058,
      "íķłê¹Į": 2059,
      "ìĽħ": 2060,
      "ë¦¿": 2061,
      "ì°½ìĹħ": 2062,
      "ëĵ¤ê³ł": 2063,
      "íĮĿ": 2064,
      "ì§ĢëıĦ": 2065,
      "ì»´íĵ¨íĦ°": 2066,
      "ë³´ëĭ¤ëĬĶ": 2067,
      "ëĳ¥": 2068,
      "ìĸ´ë¦°ìĿ´": 2069,
      "ìĸ¼ë§ĪëĤĺ": 2070,
      "ë°ĳ": 2071,
      "ë©Ķëī´": 2072,
      "íĥĢê³ł": 2073,
      "ë¨¹ìĿĦ": 2074,
      "ìĺģíĸ¥": 2075,
      "ìĭľë¯¼": 2076,
      "ìĿ¸ìłķ": 2077,
      "ëª©íĳľ": 2078,
      "ë¡±": 2079,
      "ë§Įëĵł": 2080,
      "ì£¼ìĿ¸": 2081,
      "ìĻ¸êµŃ": 2082,
      "ìĹ°ê²°": 2083,
      "ì¼ĢìĿ´": 2084,
      "ëķħ": 2085,
      "ìłķíĻķíŀĪ": 2086,
      "ìŀĪìľ¼ëĭĪ": 2087,
      "ë¯¸ë¦¬": 2088,
      "íĻķëĮĢ": 2089,
      "ìŀĪìĿĮ": 2090,
      "ìĪľê°Ħ": 2091,
      "ìĿ´ê±´": 2092,
      "ìĿ¸ê°Ħ": 2093,
      "ê²½ìŁģ": 2094,
      "ë©¤ë²Ħ": 2095,
      "ìľłëªħ": 2096,
      "ë§Īë¦¬": 2097,
      "íŀĲ": 2098,
      "ìĭłê²½": 2099,
      "ìķ½ê°Ħ": 2100,
      "ì¤¬": 2101,
      "ìĿ´ìłĦ": 2102,
      "ì¶©ë¶Ħ": 2103,
      "ëĭ¬ëĿ¼": 2104,
      "ê·ľìłķ": 2105,
      "ìŀħì£¼": 2106,
      "ê¸°ëħĲ": 2107,
      "ê´ĳê³ł": 2108,
      "ì½¤": 2109,
      "ìĸ´ëłµ": 2110,
      "ê¸°íĥĢ": 2111,
      "ë¯¼ì£¼": 2112,
      "ê·¸ëħĢ": 2113,
      "ê¸°ìĤ¬": 2114,
      "ëĶ°ë¥´ë©´": 2115,
      "ëĦĵ": 2116,
      "êµ¬ëĤĺ": 2117,
      "ê°Ģë©´": 2118,
      "ëĭ¨ê³Ħ": 2119,
      "ìķĦë²Ħ": 2120,
      "ìĿ´ë£¨": 2121,
      "ìķĬìĿĦ": 2122,
      "ìķĦë¦Ħ": 2123,
      "ìĺ¤ë¥¸": 2124,
      "ìĦłìłķ": 2125,
      "ì§ĳì¤ĳ": 2126,
      "íģĲ": 2127,
      "ë¯¸ëŀĺ": 2128,
      "ìķ±": 2129,
      "ìĿ´ê²Į": 2130,
      "ìļĶìłĢ": 2131,
      "ìĿ´íķĺ": 2132,
      "êµĲìĪĺ": 2133,
      "ê³µê²©": 2134,
      "ì°¸ìĦĿ": 2135,
      "ì£¼ìĭĿ": 2136,
      "ìĹħë¬´": 2137,
      "ê°Ģì¹ĺ": 2138,
      "íı¬ìĬ¤": 2139,
      "ëĸ¡": 2140,
      "ì¹ĺëĬĶ": 2141,
      "ëĦ£ìĸ´": 2142,
      "ëĤĺìĻĶ": 2143,
      "íģ¬ë¦¼": 2144,
      "ìĹĨìĸ´ìĦľ": 2145,
      "ëĴ·": 2146,
      "íģ´ë¦Ń": 2147,
      "ë¹Ļ": 2148,
      "ëĤ¬ëĭ¤": 2149,
      "ì¢ĭìĿĦ": 2150,
      "ê±°ìļ´": 2151,
      "ë°ĺëĵľìĭľ": 2152,
      "ìļĶêµ¬": 2153,
      "ìĽ¨ëĶ©": 2154,
      "ìĦ¸ëĮĢ": 2155,
      "ê¹Ĭ": 2156,
      "ì§Ħëĭ¤": 2157,
      "ìłĪëĮĢ": 2158,
      "íĨµìĭł": 2159,
      "ì£¼ì°¨": 2160,
      "íĥĲ": 2161,
      "ì¤ĳìķĻ": 2162,
      "íĶĦíĬ¸": 2163,
      "íħĮë¦¬ìĸ´": 2164,
      "ëĿ¼ìļ´": 2165,
      "ëıĦë¡ľ": 2166,
      "ëĨĢìĿ´": 2167,
      "ë¬¼ìĸ´": 2168,
      "ìķĦê°Ģ": 2169,
      "ìĿ´ìĿµ": 2170,
      "ëĶ°ë¡ľ": 2171,
      "ëĲĺê¸°": 2172,
      "ë¹ĮëĿ¼": 2173,
      "ì±Ļ": 2174,
      "êµĲíĨµ": 2175,
      "ê°ķíĩ´": 2176,
      "ë°Ľìķĺ": 2177,
      "ìľ¼ë¡ľëıĦ": 2178,
      "ìĿĺê²¬": 2179,
      "ìĪĺìĿµ": 2180,
      "ìĭ¼": 2181,
      "ê´ĳì£¼": 2182,
      "ìĿĺìĤ¬": 2183,
      "ë³Ģê²½": 2184,
      "ìŀĪìľ¼ë©´": 2185,
      "ìĹŃìĤ¬": 2186,
      "ìĪĺë¦¬": 2187,
      "ê°¤": 2188,
      "ëĭĪëĭ¹": 2189,
      "ìķĦë¹ł": 2190,
      "ê²Ł": 2191,
      "ë¶ģíķľ": 2192,
      "ëģĹ": 2193,
      "ë§¤ë§¤": 2194,
      "ìĽĮìĦľ": 2195,
      "íİľ": 2196,
      "ë©ĺ": 2197,
      "ëį°ë¯¸": 2198,
      "ëĤłìĶ¨": 2199,
      "ìĭłê·ľ": 2200,
      "ëĤ¨íİ¸": 2201,
      "ìĿ¸íħĮë¦¬ìĸ´": 2202,
      "ìķĪìłķ": 2203,
      "ëĤĺìĺ¤ëĬĶ": 2204,
      "ìķĹ": 2205,
      "ê³µì§Ģ": 2206,
      "ìłĦê¸°": 2207,
      "íĶĮëłĪìĿ´": 2208,
      "ë³µì§Ģ": 2209,
      "ë§Įíķľ": 2210,
      "ìĤ´ì§Ŀ": 2211,
      "ê°Ħëĭ¨": 2212,
      "íķĺëĬĺ": 2213,
      "ìĦ¸ìĿ¼": 2214,
      "ìĿ´ë¯¸ì§Ģ": 2215,
      "ìĪĺê°ķ": 2216,
      "ìĭľê³µ": 2217,
      "ìĪĺìĪĺ": 2218,
      "íŀĮ": 2219,
      "ë§¹": 2220,
      "ìļĶìķĦ": 2221,
      "ê²°ìłľ": 2222,
      "ì§Ģê¸ī": 2223,
      "ëįĶëĿ¼ê³ł": 2224,
      "ê°ķëĤ¨": 2225,
      "ì£¼ìĨĮ": 2226,
      "ë¶Īê°Ģ": 2227,
      "ìłľíķľ": 2228,
      "ìļ°ìĪĺ": 2229,
      "ì¢ĭìķĦíķĺëĬĶ": 2230,
      "ëĵ±ê¸ī": 2231,
      "ê±´ë¬¼": 2232,
      "ëĮĢìĭł": 2233,
      "ëĬĶëĭ¤": 2234,
      "ê³§": 2235,
      "íķĺíķĺ": 2236,
      "ì¤ĳê°Ħ": 2237,
      "íĮĲëĭ¨": 2238,
      "ì¢ħíķ©": 2239,
      "ê°Ģìķ¼": 2240,
      "ê±¸ë¡ľ": 2241,
      "ëĬĲê»´": 2242,
      "íİ´": 2243,
      "ëĤĺê³ł": 2244,
      "íĭ±": 2245,
      "ëĤ´ê³ł": 2246,
      "ìŀ¥ìĨĮ": 2247,
      "ì£¼ìŀ¥": 2248,
      "ë³´íĨµ": 2249,
      "ëĬĲëģ¼": 2250,
      "ìĿ´ëĿ¼ëıĦ": 2251,
      "íĻĺìŀĲ": 2252,
      "ê³¼íķĻ": 2253,
      "ê³µìľł": 2254,
      "ê²½ìĺģ": 2255,
      "ìķĦë²Ħì§Ģ": 2256,
      "ëŃĶê°Ģ": 2257,
      "êµŃíļĮ": 2258,
      "ë¢": 2259,
      "ëª½": 2260,
      "ìĺ¤íĶĪ": 2261,
      "ìĿ´ìŀĲ": 2262,
      "ìłģìĸ´": 2263,
      "ê°ģê°ģ": 2264,
      "ìĥµ": 2265,
      "ëİ": 2266,
      "ëĮĢíĺķ": 2267,
      "ìĿ¸íķ´": 2268,
      "ë³´ìľł": 2269,
      "ê¸°ëĬĶ": 2270,
      "ê°ĢìĬ´": 2271,
      "ìłĦìĭľ": 2272,
      "ê¹¨ëģĹ": 2273,
      "ëĵľëĿ¼ë§Ī": 2274,
      "ìĹ¬ëŁ¬ë¶Ħ": 2275,
      "ìĿ´ê³³": 2276,
      "ëĳĶ": 2277,
      "ë¢°": 2278,
      "ìĪĺìłķ": 2279,
      "íķĻìĬµ": 2280,
      "ìĭ¤ìĭľ": 2281,
      "ìłĦíĺĢ": 2282,
      "on": 2283,
      "ìĻĦìĦ±": 2284,
      "íķĺê±°ëĤĺ": 2285,
      "íİ¼": 2286,
      "ì¥¬": 2287,
      "ìĥģëĭ¹": 2288,
      "ë§Īê°Ĳ": 2289,
      "ê³łê¸ī": 2290,
      "20": 2291,
      "ìķĦëĭĪë©´": 2292,
      "ì£¼ìļĶ": 2293,
      "ìľłëŁ½": 2294,
      "ìŀ¥ìķł": 2295,
      "ë¯¸ìĤ¬ìļ©": 2296,
      "ìĿĺë£Į": 2297,
      "ê¹ĶëģĶ": 2298,
      "ëįĶëĿ¼ëıĦ": 2299,
      "íķĺìĺĢëĭ¤": 2300,
      "ìķĦì§Ģ": 2301,
      "ì¢ħë¥ĺ": 2302,
      "ë°ĶìĿ¼": 2303,
      "ìĤ¬ëĬĶ": 2304,
      "ë¦°ëĭ¤": 2305,
      "íıīê·ł": 2306,
      "ìĹī": 2307,
      "ëª¨ë°ĶìĿ¼": 2308,
      "íĿĺ": 2309,
      "ì£¼ìħ¨": 2310,
      "íĻķìłķ": 2311,
      "ìĹŃíķł": 2312,
      "ìļĶì²Ń": 2313,
      "ë§ĪíĬ¸": 2314,
      "ì¶ľìĭľ": 2315,
      "ê³µìĽĲ": 2316,
      "ë³´ìŀ¥": 2317,
      "ì¡´ìŀ¬": 2318,
      "ìĿ´ëĬĶ": 2319,
      "ìĪĺë¡Ŀ": 2320,
      "ë¤": 2321,
      "ì¿¨": 2322,
      "ì»µ": 2323,
      "ìĶ¬": 2324,
      "ìħĶëıĦ": 2325,
      "ê¸Īë¦¬": 2326,
      "ëĶľ": 2327,
      "ë¡ľìĦľ": 2328,
      "ëĭŃ": 2329,
      "ë°Ķëĭ¤": 2330,
      "ëĥĪëĭ¤": 2331,
      "ëĦ¤ìĿ´ë²Ħ": 2332,
      "ë¬¼íĴĪ": 2333,
      "íķĺêµ¬": 2334,
      "ìķĦëĭĪê³ł": 2335,
      "ìĹĨìĿĦ": 2336,
      "ë²¼ë£©": 2337,
      "íĺĳëł¥": 2338,
      "ë¬µ": 2339,
      "ìķĪëĲĺ": 2340,
      "ìĹ°ê¸°": 2341,
      "ë°©íĸ¥": 2342,
      "ëł¤ìĦľ": 2343,
      "ë§¤ì¶ľ": 2344,
      "íķĺëĭ¤ê³ł": 2345,
      "ìł¸ìĦľ": 2346,
      "ìļĶë¦¬": 2347,
      "íħĲëį°": 2348,
      "ìŀ¥ê¸°": 2349,
      "ë§ŀìķĦ": 2350,
      "ê°ľìµľ": 2351,
      "ì§±": 2352,
      "íķĺìĭľê¸°": 2353,
      "ìĺ¤ëŀľ": 2354,
      "ëĭ¹ìĹ°": 2355,
      "ëĤĺì¤ĳ": 2356,
      "ë²Ĺ": 2357,
      "ê±´ì§Ģ": 2358,
      "ë»Ĳ": 2359,
      "ë¡ľëĬĶ": 2360,
      "ìļ´ìłĦ": 2361,
      "ìĵ°ê³ł": 2362,
      "íĻĪíİĺìĿ´ì§Ģ": 2363,
      "ëª©ìłģ": 2364,
      "19": 2365,
      "íı¬ìŀ¥": 2366,
      "ëĭ·": 2367,
      "ê°ĢëĵĿ": 2368,
      "ë¹ħ": 2369,
      "ìĬµê´Ģ": 2370,
      "ì¦Ŀê¶Į": 2371,
      "ëĶĶìĸ´": 2372,
      "ë°Ķëĭ¥": 2373,
      "ê°ĳìŀĲê¸°": 2374,
      "ìłķì§Ģ": 2375,
      "íĨµë³´": 2376,
      "ì¹ľìłĪ": 2377,
      "ìĪĺìŀħ": 2378,
      "ëıĦìłĦ": 2379,
      "ê¸Ģë¡ľ": 2380,
      "ìĹ¬ë¶Ģ": 2381,
      "ìŀĪëĤĺ": 2382,
      "ëª¨ìĸĳ": 2383,
      "ë°ľê²¬": 2384,
      "íĸīìłķ": 2385,
      "ëĦĪì§Ģ": 2386,
      "ëĤ´ëħĦ": 2387,
      "ìŀĪì§Ģ": 2388,
      "ìĽĢì§ģ": 2389,
      "ë¬»": 2390,
      "ìĭľìĽĲ": 2391,
      "ìķĮë°Ķ": 2392,
      "ë³Ħë¡ľ": 2393,
      "ê°ķìĿĺ": 2394,
      "ë¯¸ëĭĪ": 2395,
      "ìŀĳê°Ģ": 2396,
      "ê²łì§Ģ": 2397,
      "ìłģëĭ¹": 2398,
      "ìľĦíĹĺ": 2399,
      "ìĵ°ëĬĶ": 2400,
      "íĺĦìĭ¤": 2401,
      "ê¸°íļį": 2402,
      "ë½ĳ": 2403,
      "ê°ĸê³ł": 2404,
      "ëŀĦ": 2405,
      "ë³´ìĿ¸ëĭ¤": 2406,
      "ê°Ģê²Į": 2407,
      "ê°ģì¢ħ": 2408,
      "ê³łëł¤": 2409,
      "ì¶ľë°ľ": 2410,
      "ì¶ľìĹ°": 2411,
      "ìľłë¦¬": 2412,
      "ê²½ë§¤": 2413,
      "ëĭ´ëĭ¹": 2414,
      "ë¡¤": 2415,
      "ëģĪ": 2416,
      "ìĭ¸ìĿ´": 2417,
      "ìĭĿìĤ¬": 2418,
      "ìĹ½": 2419,
      "ìĵ´": 2420,
      "ìĬ¤íĭ°": 2421,
      "ìķĦì¹´": 2422,
      "ì´Īëĵ±": 2423,
      "íķĻëħĦ": 2424,
      "íĸĪìĿĦ": 2425,
      "ëŀ«": 2426,
      "ìºĲë¦Ń": 2427,
      "ê³µíķŃ": 2428,
      "ìĭľì²Ń": 2429,
      "ìłģê·¹": 2430,
      "íķĺëĭ¤ê°Ģ": 2431,
      "ìłľìĻ¸": 2432,
      "íķĢ": 2433,
      "ë¸Ķë£¨": 2434,
      "ìĹł": 2435,
      "ë§Ľì§ĳ": 2436,
      "ëª¨ì§ĳ": 2437,
      "ë§İìķĦ": 2438,
      "ìķĬìķĺëĭ¤": 2439,
      "ìĭłìĥģ": 2440,
      "ëıĻìĥĿ": 2441,
      "ì£¼ìĿ¼": 2442,
      "íĥĢìĿ´": 2443,
      "ìĺĪìłĦ": 2444,
      "êµĲì²´": 2445,
      "ìĿ´êµ¬": 2446,
      "ëĤ¨ìķĦ": 2447,
      "ì¢ĭìĬµëĭĪëĭ¤": 2448,
      "ìŀ¬ë£Į": 2449,
      "ëĥĦ": 2450,
      "íĶĮëŁ¬": 2451,
      "ìłľëıĦ": 2452,
      "ê°ķì¡°": 2453,
      "ëįĺëį°": 2454,
      "ìĪĺìĽĲ": 2455,
      "ê³µê¸ī": 2456,
      "ê¸°ê¸°": 2457,
      "ì£¼ìĭľê³ł": 2458,
      "ìłĦëŀµ": 2459,
      "ë³´ì¦Ŀ": 2460,
      "íĮĮìĿ´": 2461,
      "ë³´ìĥģ": 2462,
      "ì¡°íļĮ": 2463,
      "ìĸ´ìķ¼": 2464,
      "íķ©ê²©": 2465,
      "ìļ©íĴĪ": 2466,
      "íķľì§Ģ": 2467,
      "ìĽĲíķĺëĬĶ": 2468,
      "íģ¬ê¸°": 2469,
      "ìĨĮëĵĿ": 2470,
      "ìŀĦëĮĢ": 2471,
      "íĹ¬": 2472,
      "ìĬ¤ëŁ¬ìļ´": 2473,
      "íĸīëıĻ": 2474,
      "ëĨĪ": 2475,
      "ìĿ´ëŁ¬íķľ": 2476,
      "ê·¸ê²Į": 2477,
      "ìŀĪëĦ¤": 2478,
      "ë°Ķì§Ģ": 2479,
      "ê¿Ģ": 2480,
      "ì£¼ê¸°": 2481,
      "ëĸ¼": 2482,
      "ìĭłëŀĳ": 2483,
      "ë§Īë¬´ë¦¬": 2484,
      "ìĦłê±°": 2485,
      "ìķĺëĬĶëį°": 2486,
      "ì¡°ìłķ": 2487,
      "ìĥ·": 2488,
      "pc": 2489,
      "ë°ĺìĿĳ": 2490,
      "ë°ĺëĮĢ": 2491,
      "ëĥĪ": 2492,
      "ìľłëıĦ": 2493,
      "ìĺ¤ë¹ł": 2494,
      "ë¹Ħë¡¯": 2495,
      "ëıĻìĭľ": 2496,
      "ì§Ģêµ¬": 2497,
      "ìŀĳëħĦ": 2498,
      "ìĬ¤ë§ĪìĿ¼": 2499,
      "ìĨĮìŀ¬": 2500,
      "ì§Ģíķĺ": 2501,
      "ìłĳìĪĺ": 2502,
      "ëĿ¼ìĬ¤": 2503,
      "ìĹĲìĸ´ì»¨": 2504,
      "ì§Ģì¼ľ": 2505,
      "ì¡°ìĦł": 2506,
      "ê±´ëį°": 2507,
      "ìĿ¸ìĥĿ": 2508,
      "ìŀĪìĿĦê¹Į": 2509,
      "ëĭ¤íĸī": 2510,
      "ì£¼ê°Ģ": 2511,
      "ëĢ": 2512,
      "ë¬¼ê±´": 2513,
      "íĺĦì§Ģ": 2514,
      "ì½Ķë¦¬ìķĦ": 2515,
      "ìķĺìĬµëĭĪëĭ¤": 2516,
      "ìŀħê³ł": 2517,
      "íķĺëĤĺëĭĺ": 2518,
      "ëĤ´ëĬĶ": 2519,
      "ëĵľë¦¼": 2520,
      "ìĺĪìģľ": 2521,
      "ë³¶": 2522,
      "ì¡°íķ©": 2523,
      "ìĺ¤íĶ¼ìĬ¤": 2524,
      "ë¬ĺ": 2525,
      "ê³¼ìĿĺ": 2526,
      "ê¸°ê³ł": 2527,
      "ê°Ģë°©": 2528,
      "íķĺëĿ½": 2529,
      "ìĸ´ëĤľ": 2530,
      "ìĹĳ": 2531,
      "ì»¬ëŁ¬": 2532,
      "ìĮĢ": 2533,
      "30": 2534,
      "ì§Ģìłģ": 2535,
      "ìĽ¨ìĿ´": 2536,
      "ëıĦìĻĢ": 2537,
      "ì§§": 2538,
      "ì§ģìŀ¥": 2539,
      "ìĬ¤ë¡ľ": 2540,
      "ëıĻë¬¼": 2541,
      "ëĤ´ë¶Ģ": 2542,
      "ìĬ¤íı¬ì¸ł": 2543,
      "ìĮį": 2544,
      "ëĭ¬ë¦¬": 2545,
      "ì§ĢìĭĿ": 2546,
      "ê±´ì¶ķ": 2547,
      "ì¦Ŀìłķ": 2548,
      "ìĺĪìĪł": 2549,
      "ê³łìĸĳ": 2550,
      "ì°¸ê°Ģ": 2551,
      "ì¾": 2552,
      "ëĮĢíĻĶ": 2553,
      "ìĿ´ëĿ¼ë©°": 2554,
      "ìĥīìĥģ": 2555,
      "ëĶ°ëĿ¼ìĦľ": 2556,
      "ë¶Īíİ¸": 2557,
      "ìŀ¡ìķĦ": 2558,
      "íķĺëł¤ê³ł": 2559,
      "ì£¼ìħĶìĦľ": 2560,
      "íķ¸ëĵľ": 2561,
      "ìĹĲìĦł": 2562,
      "ì¦Ŀìĥģ": 2563,
      "ë¦¬ê·¸": 2564,
      "ì¡°ì¹ĺ": 2565,
      "ëĶ°ëľ»": 2566,
      "ëģĬ": 2567,
      "ë¡Ńê²Į": 2568,
      "ìłľê±°": 2569,
      "ëłĮíĥĪ": 2570,
      "ëħ¸íĬ¸": 2571,
      "ìĿ´ìģĺ": 2572,
      "ì¢ĭëĭ¤": 2573,
      "íĮĿëĭĪëĭ¤": 2574,
      "íı¼": 2575,
      "íķĺê²ł": 2576,
      "ìĨįëıĦ": 2577,
      "ê³µìŀ¥": 2578,
      "ëĤŃ": 2579,
      "ëĵľëł¸": 2580,
      "ëĶ°ë¥¸": 2581,
      "ì²´íģ¬": 2582,
      "ì¤Ģëĭ¤": 2583,
      "ìĥĺ": 2584,
      "ê°ĻìķĦìĦľ": 2585,
      "ìĬ¤íĶ¼": 2586,
      "ìĿ´ëĿ¼ë©´": 2587,
      "ë°±íĻĶ": 2588,
      "íķ´ì§Ģ": 2589,
      "ëĮĢì²´": 2590,
      "ìµľìĨĮ": 2591,
      "ê·¼ì²ĺ": 2592,
      "ëĲĺìĹĪìĬµëĭĪëĭ¤": 2593,
      "ì¹¸": 2594,
      "ëĵĢ": 2595,
      "ìłķíĴĪ": 2596,
      "ìĭĿíĴĪ": 2597,
      "ìĹ´ë¦°": 2598,
      "ìĿ¸ìĥģ": 2599,
      "ë§ĪìĿ´": 2600,
      "ëħ¸ëıĻ": 2601,
      "ìłľíĴĪëªħ": 2602,
      "ìĭłìļ©": 2603,
      "íĻķë³´": 2604,
      "ë¯¼êµŃ": 2605,
      "ê¸°ì´Ī": 2606,
      "ëį§ê¸Ģ": 2607,
      "íħį": 2608,
      "ì£¼ë©´": 2609,
      "ê³łëĵ±": 2610,
      "ë¶Ħëªħ": 2611,
      "íĺķíĥľ": 2612,
      "ìĭ¶ëĭ¤": 2613,
      "íĹĲ": 2614,
      "ìŀłìĭľ": 2615,
      "ì°įìĸ´": 2616,
      "íĤ¤ì§Ģ": 2617,
      "íĺ¹ìĿĢ": 2618,
      "íĨµíķ©": 2619,
      "ëĤĺê²Į": 2620,
      "ìłľìĭľ": 2621,
      "ë°°ëĭ¬": 2622,
      "ëª»íķľ": 2623,
      "ë¹Ħìĭ¸": 2624,
      "ë©į": 2625,
      "ìķĦëĭĪëĭ¤": 2626,
      "ìķĦì¹´ëį°ë¯¸": 2627,
      "ëª»íķĺê³ł": 2628,
      "ëĭ¤ìĿ´ìĸ´": 2629,
      "ìĹĲê²ĮëĬĶ": 2630,
      "ë°ĶëĢ": 2631,
      "ëĲĺë©°": 2632,
      "ìķĦëĬĶ": 2633,
      "ìĨĮìĭĿ": 2634,
      "ë©ĶëĿ¼": 2635,
      "ë©ĶìĿ´": 2636,
      "ë§¤ëł¥": 2637,
      "ê°ĳëĭĪëĭ¤": 2638,
      "ëĭ¤ë§Į": 2639,
      "íķ«": 2640,
      "ë³Ģíĺ¸": 2641,
      "ìĭľíĸī": 2642,
      "ìľĪ": 2643,
      "ìĤ¬ëĿ¼": 2644,
      "ì»·": 2645,
      "ë§ŀìĿ´": 2646,
      "ìĪĺëıĦ": 2647,
      "ëĮĢíķĻêµĲ": 2648,
      "ëĤ¨ê²¨": 2649,
      "ìŀĲê³ł": 2650,
      "ìĦ¤ìłķ": 2651,
      "ìŀĲìłĦ": 2652,
      "íĸīìľĦ": 2653,
      "ë¡ľëĤĺ": 2654,
      "íİĢ": 2655,
      "ìĿ´ìļĶ": 2656,
      "íľ´ëĮĢ": 2657,
      "ëŀįëĭĪëĭ¤": 2658,
      "ëª¨ìŀĦ": 2659,
      "ëĮĢíķľë¯¼êµŃ": 2660,
      "ìĸ´ìļ¸": 2661,
      "ìĿ´ë©ĶìĿ¼": 2662,
      "ëĵ±ëĵ±": 2663,
      "ìĹĲëĦĪì§Ģ": 2664,
      "ìĬ¤ìĬ¤ë¡ľ": 2665,
      "ë¡ľëĵľ": 2666,
      "in": 2667,
      "ìĦ¯": 2668,
      "ìŀĬ": 2669,
      "ê°ĢìĿĦ": 2670,
      "ìŀĲê¸Ī": 2671,
      "ë°į": 2672,
      "ìĹ¬ìĦľ": 2673,
      "ëĲĺëĬĶëį°": 2674,
      "ê¸Ģë¡ľë²Į": 2675,
      "ì¼Ģìĸ´": 2676,
      "ì¼ĢìĿ´ìĬ¤": 2677,
      "ìĩ¼íķĳëª°": 2678,
      "íķľëĭ¤ë©´": 2679,
      "ìıĺ": 2680,
      "ë´¤ëĬĶëį°": 2681,
      "ìĻ¼": 2682,
      "ëĭ¤ë¥´": 2683,
      "ìĥĿëªħ": 2684,
      "ë§ŀì¶°": 2685,
      "ìķŀìĦľ": 2686,
      "ì¡°ìĦ±": 2687,
      "ë°´": 2688,
      "ìĹ°íķ©": 2689,
      "íĮĮìĿ¼": 2690,
      "ìłĲìĭ¬": 2691,
      "ìĺĪìģĺ": 2692,
      "ëĩĮ": 2693,
      "°ëĭ¤": 2694,
      "ìĭłë°ľ": 2695,
      "ê³¼ê±°": 2696,
      "ìłĦìļ©": 2697,
      "ê°ĢìĬ¤": 2698,
      "ìŀ¡ê³ł": 2699,
      "ëĿł": 2700,
      "ëĵ¬": 2701,
      "ìĹħê³Ħ": 2702,
      "ìºĲë¦ŃíĦ°": 2703,
      "ë¯¸ìķĪ": 2704,
      "ê°Ģì§Ħ": 2705,
      "ìĤ¬ìłĦ": 2706,
      "ìĽĶëĵľ": 2707,
      "êµ¿": 2708,
      "ìķĦìĭľìķĦ": 2709,
      "ìĥĪë²½": 2710,
      "ìŀĲìłĦê±°": 2711,
      "íķĺëĭ¤ëĬĶ": 2712,
      "ìĸ´ì°Į": 2713,
      "íĽĪëł¨": 2714,
      "ëĤ¨ìĦ±": 2715,
      "ìĤ¬ê¸°": 2716,
      "ìµľì´Ī": 2717,
      "ìĭľë¦¬": 2718,
      "ìĻĶìĸ´": 2719,
      "ëĿ¼ë©°": 2720,
      "ìĹĨìĹĪëĭ¤": 2721,
      "ìķĦìķĦ": 2722,
      "ìĤ¬ë¡Ģ": 2723,
      "ë°©ìķĪ": 2724,
      "ê³¨íĶĦ": 2725,
      "íĶĦë¦¬ë¯¸": 2726,
      "ê·¸ëŀ¬": 2727,
      "ìĥģê´Ģ": 2728,
      "to": 2729,
      "ìŀ¥ë¹Ħ": 2730,
      "ëĪĦê°Ģ": 2731,
      "ê´Ģíķľ": 2732,
      "ì¶ķìłľ": 2733,
      "ì¡°ì§ģ": 2734,
      "ìŀ¥ê´Ģ": 2735,
      "ìĹ°ìĬµ": 2736,
      "ìŀĪëĬĶì§Ģ": 2737,
      "ëĵľë¦¬ê³ł": 2738,
      "ê·¸ëıĻìķĪ": 2739,
      "ë¤Ħ": 2740,
      "ë¶Īìĸ´": 2741,
      "ëĦµ": 2742,
      "ĻëĭĪëĭ¤": 2743,
      "íģ¬ë¦¬": 2744,
      "íĶĦëĿ¼": 2745,
      "ê²¸": 2746,
      "ìĦ±ê²©": 2747,
      "ë§ĮìĿĺ": 2748,
      "ê°ĲìĨĮ": 2749,
      "êµ¬ê²½": 2750,
      "ìķĦìĿ´íı°": 2751,
      "íķĺìļ°ìĬ¤": 2752,
      "íĬĢ": 2753,
      "ìĻĦë²½": 2754,
      "íķĺê²łëĭ¤": 2755,
      "íŀĪëł¤": 2756,
      "ìŀĲê¾¸": 2757,
      "íķłì§Ģ": 2758,
      "ëį°ìĿ´íĦ°": 2759,
      "ëª©ìĨĮë¦¬": 2760,
      "ìŀĪëĭ¤ë©´": 2761,
      "ìĺĪë°©": 2762,
      "ìļ°ê³ł": 2763,
      "ëĮĢê¸°": 2764,
      "íĽ¨": 2765,
      "ëĵ±ìŀ¥": 2766,
      "ì§Ģìłķ": 2767,
      "ê½¤": 2768,
      "ìľ¼ë©´ìĦľ": 2769,
      "ëĲ¨": 2770,
      "ê¹ľ": 2771,
      "ì£¼ìłľ": 2772,
      "ìĹĲìĿ´": 2773,
      "íĮĮíģ¬": 2774,
      "íĹ¤ìĸ´": 2775,
      "ëį©": 2776,
      "ìķĦìī¬": 2777,
      "ìłľì¡°": 2778,
      "ìĽĲìĿ¸": 2779,
      "ìķ¨": 2780,
      "ì¹´íĨ¡": 2781,
      "ìĿ½ìĸ´": 2782,
      "ë§ĮëĵľëĬĶ": 2783,
      "ìĿ¼ê¹Į": 2784,
      "ê°ĻëĦ¤": 2785,
      "íĬ¸ë¦¬": 2786,
      "ì°¨ì§Ģ": 2787,
      "ì¾Į": 2788,
      "ìŀ¥íĦ°": 2789,
      "ëĲĺìĦľ": 2790,
      "ìłĦíĨµ": 2791,
      "íķĺìħĶìĦľ": 2792,
      "ëĵľë¦¬ê²łìĬµëĭĪëĭ¤": 2793,
      "ë¡ľë¶ĢíĦ°": 2794,
      "ìļĶê¸Ī": 2795,
      "ìĺ¤ê³ł": 2796,
      "ìĩĦ": 2797,
      "ìĺ¤íŀĪëł¤": 2798,
      "ê·¸ë¦°": 2799,
      "ìĪĺìĤ¬": 2800,
      "ê°Ĳìłķ": 2801,
      "íļĮë³µ": 2802,
      "ëĵ¯ìĿ´": 2803,
      "ë¬´ëĮĢ": 2804,
      "ìĬ¤íħĮ": 2805,
      "íķĺëıĦë¡Ŀ": 2806,
      "ì¹´ë©ĶëĿ¼": 2807,
      "ìĸ´ëł¤ìļ´": 2808,
      "íĮ¨ìĬ¤": 2809,
      "ë§Įëĵ¤ê¸°": 2810,
      "ìĪĺì¶ľ": 2811,
      "ëĭ¬ëł¤": 2812,
      "ìĺ¤ìĿ¼": 2813,
      "ëĦ£ê³ł": 2814,
      "ê¸¸ëŀĺ": 2815,
      "ë§ĪìŀĲ": 2816,
      "ë§Įìķ½": 2817,
      "ë²Įìį¨": 2818,
      "íĭ´": 2819,
      "ëĲłê¹Į": 2820,
      "ëĭĲ": 2821,
      "ìŀ¥ëĤľ": 2822,
      "ëĵľë¦´ê²Į": 2823,
      "íĻĶìĿ´íĬ¸": 2824,
      "ë³´ëĵľ": 2825,
      "ë¶Ħê¸°": 2826,
      "ëĦ¤ìŀĦ": 2827,
      "ìĥĪë¡ľ": 2828,
      "ìĪĺìĥģ": 2829,
      "ì¡°ìĭ¬": 2830,
      "ìĺĪìĤ°": 2831,
      "ê·¸ëŁ´": 2832,
      "ìłĿ": 2833,
      "ê¹Ģì¹ĺ": 2834,
      "ìļ°ëł¤": 2835,
      "íķĺì£ł": 2836,
      "ìĮĵ": 2837,
      "êµ³": 2838,
      "ëį¤": 2839,
      "ëĳĺëŁ¬": 2840,
      "ìĺ®": 2841,
      "ëĲĺëĤĺ": 2842,
      "ê·¼ë¬´": 2843,
      "ê±·": 2844,
      "ì§ĢìĪĺ": 2845,
      "ìĸ´ë¨¸ëĭĪ": 2846,
      "ëĤļ": 2847,
      "ë³´ìŀĲ": 2848,
      "ë¹Ħíķ´": 2849,
      "ìĥĢ": 2850,
      "ëıĦìĦľ": 2851,
      "ë³´ê´Ģ": 2852,
      "ìĤ´íİ´": 2853,
      "ìĬĪíį¼": 2854,
      "ì´Īê¸°": 2855,
      "ìŀĪìĹĪëĬĶëį°": 2856,
      "ì£¼ìĭľê¸°": 2857,
      "ê°Ħëĭ¤": 2858,
      "ëĵ±ìĹħ": 2859,
      "ìĻĢìĿ´": 2860,
      "ëŀ©": 2861,
      "ìłĦëĭ¬": 2862,
      "ë²ķìĽĲ": 2863,
      "ëĵ£ê³ł": 2864,
      "ë¦ĩ": 2865,
      "ì¤Į": 2866,
      "ë±ħ": 2867,
      "ìľłìķĦ": 2868,
      "ìĹ°ìĨį": 2869,
      "ê±¸ìĸ´": 2870,
      "ë³´ëıĦ": 2871,
      "ëĪĮ": 2872,
      "ìĭłì¶ķ": 2873,
      "ìº¡": 2874,
      "ê°ĢëģĶ": 2875,
      "ëħĢìĦĿ": 2876,
      "ë¨¸ì§Ģ": 2877,
      "ìľłì¹ĺ": 2878,
      "íıīìĨĮ": 2879,
      "ìķĬëĬĶëĭ¤": 2880,
      "ìŀİ": 2881,
      "ë²ħ": 2882,
      "íĶĮëŁ¬ìĬ¤": 2883,
      "ìĹ¬ìľł": 2884,
      "ëł¤ë©´": 2885,
      "ìķĦëĭĮê°Ģ": 2886,
      "ëĭ¨ìĪľ": 2887,
      "íķĺëĿ¼": 2888,
      "ìľĦë°ĺ": 2889,
      "ê·ĢìĹ¬": 2890,
      "íķľìłķ": 2891,
      "ë²Ħë¦¬": 2892,
      "ëģĮìĸ´": 2893,
      "ê°ĢëĿ½": 2894,
      "ì¶ķíķĺ": 2895,
      "ëĪĪë¬¼": 2896,
      "ëĭ¤ìĿ´ìĸ´íĬ¸": 2897,
      "íı¬ê¸°": 2898,
      "íĺĳìĿĺ": 2899,
      "ìĹĲë§Į": 2900,
      "ë¡ľì¼ĵ": 2901,
      "ìĿį": 2902,
      "ê¸¸ìĿ´": 2903,
      "ëĮĢìĿĳ": 2904,
      "ìķĦëĭĲ": 2905,
      "ì¢ĭê³ł": 2906,
      "ìłĦíĸĪëĭ¤": 2907,
      "ìļ¸ìĤ°": 2908,
      "ìĹĨìĿĮ": 2909,
      "ì¿łíĮ¡": 2910,
      "ìĻĢìĿĺ": 2911,
      "íĥĢìŀĦ": 2912,
      "ìłĢê¸°": 2913,
      "ê³µê¸°": 2914,
      "ìłĦë¶Ģ": 2915,
      "íĸĪëĭ¤ëĬĶ": 2916,
      "ìķĦíĶĦ": 2917,
      "ìĺģêµŃ": 2918,
      "ìłĢëł´íķľ": 2919,
      "ëĪĦë¦¬": 2920,
      "ëĤĺìĺ¬": 2921,
      "ìłĦìĦ¸": 2922,
      "ë¬´íĨµë³´": 2923,
      "ë²ķìĿ¸": 2924,
      "ì¤ĳê°ľ": 2925,
      "íĶĦëŀĳ": 2926,
      "íĦ°ë¦¬": 2927,
      "ëłĮíĬ¸": 2928,
      "ìµľì¢ħ": 2929,
      "ëŃĺ": 2930,
      "ê³µë¬´": 2931,
      "ìĭĿëĭ¹": 2932,
      "ê°ľë´ī": 2933,
      "ìĦ¤ê³Ħ": 2934,
      "ëłĢ": 2935,
      "ë¬´ì¡°ê±´": 2936,
      "ë´ĲëıĦ": 2937,
      "ëĤĺëĪĦ": 2938,
      "ìĽĮíģ¬": 2939,
      "íĺĲ": 2940,
      "ìĻł": 2941,
      "ìķĦìĿ´íħľ": 2942,
      "ëĭ¬ìķĦ": 2943,
      "ìĿ´ë£¨ìĸ´": 2944,
      "ìŀĥ": 2945,
      "íĶĦëłĪ": 2946,
      "ì¢ħëª©": 2947,
      "ëĩ¨": 2948,
      "ìĤ¬ê³¼": 2949,
      "ëıĻëĦ¤": 2950,
      "ìĬ¤íİĺ": 2951,
      "ê²Ĳ": 2952,
      "ëĨĴìĿ´": 2953,
      "ìĭľëĭ¤": 2954,
      "ìķ½ìĨį": 2955,
      "ìĭľëĤĺ": 2956,
      "ìĿ¼ìĸ´": 2957,
      "ë¶Ģë¶Ģ": 2958,
      "íİ¸ìķĪ": 2959,
      "íĻľìĦ±": 2960,
      "íĿ°": 2961,
      "ìľ¼ìĭł": 2962,
      "ëĲľëĭ¤ê³ł": 2963,
      "ê³ĦìĤ°": 2964,
      "ë¶ĪëŁ¬": 2965,
      "ëłĽ": 2966,
      "ëłģ": 2967,
      "ë³¸ë¶Ģ": 2968,
      "ëĵ¤ìĸ´ìĦľ": 2969,
      "ëĤĺë¦Ħ": 2970,
      "re": 2971,
      "íķĺëįĶëĿ¼êµ¬": 2972,
      "ìĿ¸ìĽĲ": 2973,
      "ëŁŃìĭľ": 2974,
      "ëıĻìĿ¼": 2975,
      "ìĦ±ë¶Ħ": 2976,
      "ì¤įëĭĪëĭ¤": 2977,
      "ëĨĵìĿĢ": 2978,
      "ìĺ¬ë¦¼": 2979,
      "íĹĪë¦¬": 2980,
      "ìĬ¤ì¹´": 2981,
      "ë³´ìĭľë©´": 2982,
      "ì²Ńêµ¬": 2983,
      "ìķĦëĭĺ": 2984,
      "ìľłíĨµ": 2985,
      "ìĿ¸ìĭĿ": 2986,
      "ì¦Ĳê±°ìļ´": 2987,
      "ë¶Ģë¬¸": 2988,
      "ëĭĪìķĦ": 2989,
      "ìĬ¤ëŁ½ê²Į": 2990,
      "ê¸°ë°ĺ": 2991,
      "ìĨĶì§ģ": 2992,
      "ê²Ģì°°": 2993,
      "ìĹĪê³ł": 2994,
      "ìĿ´ìĺĪìļĶ": 2995,
      "ìĦ¸íĥģ": 2996,
      "íı¬ìĬ¤íĮħ": 2997,
      "ë°Ķê¿": 2998,
      "ì§Ģê²Į": 2999,
      "ì¶©ìłĦ": 3000,
      "ìĦľë¥ĺ": 3001,
      "íĴĪì§Ī": 3002,
      "ì§ĳëĭĪëĭ¤": 3003,
      "ëĤĺë¨¸ì§Ģ": 3004,
      "ëĭĪìĬ¤": 3005,
      "ìĿ´ëĿ¼ìĦľ": 3006,
      "ê·¸ëłĪìĿ´": 3007,
      "ê·¸ê±´": 3008,
      "ìĪĺíķĻ": 3009,
      "ëĮĢì±ħ": 3010,
      "ê·¸ë§Į": 3011,
      "ëĵľë¦´ê»ĺ": 3012,
      "ìļ°ëĬĶ": 3013,
      "ê¹Įì§ĢëĬĶ": 3014,
      "ë³´ìĺĢëĭ¤": 3015,
      "ëļľ": 3016,
      "ì¶©ë¶ĦíŀĪ": 3017,
      "ìĿ¼ìĥģ": 3018,
      "ìŀ¬ë°": 3019,
      "ëįķë¶Ħ": 3020,
      "íģ´ëŀĺ": 3021,
      "ìĤ¬ìĿĢ": 3022,
      "ìķĬìĿĦê¹Į": 3023,
      "íĮ¨ìħĺ": 3024,
      "ìĭ¤ìłľë¡ľ": 3025,
      "ì¤ĳìĨĮ": 3026,
      "ìĿ¸íķľ": 3027,
      "ê¾¸ì¤Ģ": 3028,
      "ëį°ìĿ´íĬ¸": 3029,
      "ìłĦìŁģ": 3030,
      "ëŀŃ": 3031,
      "ê°Ģë¥´": 3032,
      "ë°Ķê¾¸ëĬĶ": 3033,
      "êµī": 3034,
      "ê°¤ëŁŃìĭľ": 3035,
      "ìŀĦìĭł": 3036,
      "ìĨĮìĦ¤": 3037,
      "íķĺëĬĶì§Ģ": 3038,
      "íĽ¨ìĶ¬": 3039,
      "ìķĦë¦¬": 3040,
      "ëĥĦìĥĪ": 3041,
      "ëŀĢëĭ¤": 3042,
      "ìĪĺìĺģ": 3043,
      "ìŀĳìļ©": 3044,
      "ë³´ì§Ģ": 3045,
      "íĺĦìĥģ": 3046,
      "íĶĦë¦¬ë¯¸ìĹĦ": 3047,
      "ìłĦíŀĪ": 3048,
      "ìĿ¼ì£¼ìĿ¼": 3049,
      "ëĥĲê³ł": 3050,
      "ìĻĢìļ°": 3051,
      "ê³łìĥĿ": 3052,
      "ì£¼ë°©": 3053,
      "ì±Ļê²¨": 3054,
      "ìĹĲìĦľìĿĺ": 3055,
      "ìķĦëĭĻëĭĪëĭ¤": 3056,
      "ì½Ķë¡ľëĤĺ": 3057,
      "as": 3058,
      "ì¡°ìłĪ": 3059,
      "ë¦ī": 3060,
      "ìĨĮìĬ¤": 3061,
      "ì¥Ĳ": 3062,
      "ìłĬ": 3063,
      "íĺĦëªħ": 3064,
      "ì¹¨ëĮĢ": 3065,
      "ì±Ħìļ©": 3066,
      "ë³¸ê²©": 3067,
      "ë°ĺê¸°": 3068,
      "íĳľìĭľ": 3069,
      "íĶĦë¡ľìłĿ": 3070,
      "ìħľ": 3071,
      "ìķĺëįĺ": 3072,
      "ëłĪëĵľ": 3073,
      "ìĽĥìĿĮ": 3074,
      "ë©´ìłĳ": 3075,
      "ë¶ĪìķĪ": 3076,
      "ëĦ¹": 3077,
      "ìĺĢìĬµëĭĪëĭ¤": 3078,
      "ê²¹": 3079,
      "ìĭłë¢°": 3080,
      "ëĮĢë°ķ": 3081,
      "ìłľì¶ľ": 3082,
      "ëĤ¨ìĿĢ": 3083,
      "ë°©ì§Ģ": 3084,
      "ì²ŃìĨĮëħĦ": 3085,
      "ìŀĲëŀĳ": 3086,
      "ìĭŃëĭĪëĭ¤": 3087,
      "ìĦ±ìłģ": 3088,
      "íŀĺëĵł": 3089,
      "íĮ¨íĤ¤ì§Ģ": 3090,
      "ì°¨ë¡Ģ": 3091,
      "êµ¬ì¶ķ": 3092,
      "êµīìŀ¥": 3093,
      "ë°ĺë³µ": 3094,
      "íķĳíģ¬": 3095,
      "ê¸°ê³Ħ": 3096,
      "ëĦī": 3097,
      "ì¤ĺìķ¼": 3098,
      "ëıħìĿ¼": 3099,
      "ëĭ¬ëĿ¼ê³ł": 3100,
      "ìľ¼ë¡ľìį¨": 3101,
      "ìĻ¼ìª½": 3102,
      "íħĮìĿ´ë¸Ķ": 3103,
      "ë§Īì¹ĺ": 3104,
      "ìĺĽ": 3105,
      "ìŀĲìĽĲ": 3106,
      "ìŀ¥ë©´": 3107,
      "ê·¼ë¡ľ": 3108,
      "ì§Ħëĭ¨": 3109,
      "íĺģìĭł": 3110,
      "ë´īìĤ¬": 3111,
      "ê²ª": 3112,
      "íĺĳíļĮ": 3113,
      "ìłĲê²Ģ": 3114,
      "ìĿ´ëĤ´": 3115,
      "ìĪĺìļĶ": 3116,
      "íķ©ìĿĺ": 3117,
      "ì¶ķêµ¬": 3118,
      "ëĳĺì§¸": 3119,
      "ìĺ¤íĨł": 3120,
      "ëĭĮ": 3121,
      "íĻĶë©´": 3122,
      "íķµìĭ¬": 3123,
      "ìĪľìľĦ": 3124,
      "ìŀħêµ¬": 3125,
      "ìĿ¸ëıĦ": 3126,
      "ìķĦìķ¼": 3127,
      "íķĺìĺĢìĬµëĭĪëĭ¤": 3128,
      "ìłĲìłĲ": 3129,
      "ë©ľ": 3130,
      "ìĭ¤ìłģ": 3131,
      "ë¹ĦìĬ·íķľ": 3132,
      "ìĺ¤ë©´": 3133,
      "ìłĦíĻĺ": 3134,
      "ìķĪíĥĢ": 3135,
      "ìĬ¹ë¦¬": 3136,
      "ì§Ģìĸ´": 3137,
      "íĿł": 3138,
      "ê²½ê³ł": 3139,
      "ëĵŃ": 3140,
      "ìķłê¸°": 3141,
      "ëıĻìĺģìĥģ": 3142,
      "ì§Ģê¸°": 3143,
      "ìĭłê¸°": 3144,
      "ìķĬê²Į": 3145,
      "ìĭľë¦¬ì¦Ī": 3146,
      "ê³µê³µ": 3147,
      "íİ¸íķĺê²Į": 3148,
      "ëĵłì§Ģ": 3149,
      "íĢ´": 3150,
      "ë¦¬ê¸°": 3151,
      "ìĽ¹": 3152,
      "ë£¡": 3153,
      "ë¯¸ìĪł": 3154,
      "ìĭ¤ëł¥": 3155,
      "ìĭľëıĦ": 3156,
      "ìĭ¬ìĤ¬": 3157,
      "ëĭ¹ì²¨": 3158,
      "ìĺµìħĺ": 3159,
      "ë³´ìĿ´ê³ł": 3160,
      "ê¹Ŀ": 3161,
      "ë½Ģ": 3162,
      "ì¨": 3163,
      "ìĿ´ë¤Ħ": 3164,
      "ì§ģìĹħ": 3165,
      "ê°Ģë£¨": 3166,
      "ë°ĺìĺģ": 3167,
      "ìĿ´ìģľ": 3168,
      "ìĨĮìĨį": 3169,
      "ê·¸ëŁ°ì§Ģ": 3170,
      "ìĺ¤ëŀľë§Į": 3171,
      "ê¾¼": 3172,
      "ìĸ´ì©Į": 3173,
      "ìħĶì¸ł": 3174,
      "ìĽĲìŀ¥": 3175,
      "êµĲíļĮ": 3176,
      "ì£¼ë¡ľ": 3177,
      "ëĨ¨": 3178,
      "ê°ĢìłĦ": 3179,
      "ì§Ħìłķ": 3180,
      "íĺĦê¸Ī": 3181,
      "ìĬ¤íĨłë¦¬": 3182,
      "ìķĦë¦Ħëĭ¤ìļ´": 3183,
      "íİ¸ìĿĺ": 3184,
      "ëĤĺë©´": 3185,
      "15": 3186,
      "ê³°": 3187,
      "ëĲĺë©´ìĦľ": 3188,
      "ìľ¼ë¡ľìĦľ": 3189,
      "íĬ¹ìĦ±": 3190,
      "ìĭľìłĪ": 3191,
      "ìºĶ": 3192,
      "ë¶ķ": 3193,
      "ë¶Īêµ¬": 3194,
      "at": 3195,
      "íĻĺë¶Ī": 3196,
      "íĨµíķľ": 3197,
      "ë©´ìĦ¸": 3198,
      "ìµľëĮĢíķľ": 3199,
      "ë°Ľìķĺëĭ¤": 3200,
      "ìĪ²": 3201,
      "ì¹´ìĺ¤": 3202,
      "ì½Ķëĵľ": 3203,
      "ëĭ¨ìĸ´": 3204,
      "ìĭ«ìĸ´": 3205,
      "ëĤĺëĪĶ": 3206,
      "ë°Ľê¸°": 3207,
      "ìŀĲìĤ°": 3208,
      "ìķĦëıĻ": 3209,
      "ì²´ê³Ħ": 3210,
      "íĳľìłķ": 3211,
      "ì£¼ì§Ģ": 3212,
      "ëı¼ì§Ģ": 3213,
      "ou": 3214,
      "íħĲì¸ł": 3215,
      "íĬ¹ì§ķ": 3216,
      "ë¹Ħíĸī": 3217,
      "ë§ĽìŀĪëĬĶ": 3218,
      "ìŀĪìĹĪëįĺ": 3219,
      "ìĥĿê¸´": 3220,
      "ìĤ¬ì§Ģ": 3221,
      "ìľ¼ìĭľ": 3222,
      "ê¼½": 3223,
      "18": 3224,
      "ë³´ìĭľ": 3225,
      "ìŀ¬ë°Į": 3226,
      "ìĬ¤íĬ¸ëłĪìĬ¤": 3227,
      "ë¸ĮëĿ¼": 3228,
      "ìķĦìĽĥ": 3229,
      "ìĿ¸ë¬¼": 3230,
      "ë³ĦëıĦ": 3231,
      "ìĭ¬ë¦¬": 3232,
      "ê³¼ìĻ¸": 3233,
      "ë¦¬íĭ°": 3234,
      "ëª»íķĺëĬĶ": 3235,
      "ì§ĪíĻĺ": 3236,
      "ëıĦìļ°": 3237,
      "ìĿ´ëŀĺ": 3238,
      "ì§Ħë£Į": 3239,
      "ìķĦíĬ¸": 3240,
      "ê³łìĸĳìĿ´": 3241,
      "ìĭľê°Ģ": 3242,
      "ê°ķìĽĲ": 3243,
      "ê±´ì¡°": 3244,
      "ë¶Īê°ĢëĬ¥": 3245,
      "ëª¨ë¥´ëĬĶ": 3246,
      "ë§Īìĭľê³ł": 3247,
      "ì·¨ìĨĮ": 3248,
      "íĨµíĻĶ": 3249,
      "ëĶĶì§Ģ": 3250,
      "ê²½ëĤ¨": 3251,
      "íĨłìĿµ": 3252,
      "ìĽĲíĶ¼ìĬ¤": 3253,
      "ë¨¼ì§Ģ": 3254,
      "êµīìŀ¥íŀĪ": 3255,
      "ê°ľëħĲ": 3256,
      "ì²´ìľ¡": 3257,
      "ìĽĲë£¸": 3258,
      "ìķĮê²Į": 3259,
      "íĬ¹ìĪĺ": 3260,
      "ë²Īê°Ģ": 3261,
      "ìĪĻìĨĮ": 3262,
      "ëıĦìŀħ": 3263,
      "ë¡ľìĬ¤": 3264,
      "ê°ķìķĦì§Ģ": 3265,
      "ëĭ«": 3266,
      "ëµ": 3267,
      "ëª¨ìŀĲ": 3268,
      "ëĵ¯íķľ": 3269,
      "ëĬĲëĿ¼": 3270,
      "ìĺĢìĸ´": 3271,
      "ìĺ´": 3272,
      "ìĹ°ì¶ľ": 3273,
      "íĶĦëŀĳìĬ¤": 3274,
      "ìŀĲìĦ¸íķľ": 3275,
      "ìĦłë°ľ": 3276,
      "ë¨¹ê¸°": 3277,
      "ìĭłë¬¸": 3278,
      "ìĸ¸ë¡ł": 3279,
      "ë§İìķĦìĦľ": 3280,
      "ë©Ķë¦¬": 3281,
      "ë§¥ì£¼": 3282,
      "ìĹĨëĭ¤ê³ł": 3283,
      "ìĥĿê¸°": 3284,
      "ì²ŃëħĦ": 3285,
      "ìĥĮ": 3286,
      "ê¸į": 3287,
      "íĶĦë¡ľìłĿíĬ¸": 3288,
      "ëĬĲëĥĲ": 3289,
      "ëķ¡": 3290,
      "íĻĺìĺģ": 3291,
      "ìĿ¼ìļĶìĿ¼": 3292,
      "ìŀ¥ìłĲ": 3293,
      "ìĿ¼ì°į": 3294,
      "ë¹łìł¸": 3295,
      "ê´Ħ": 3296,
      "ìĿ´ìĽĥ": 3297,
      "íķ´ì§Ħ": 3298,
      "ìĹĨëĦ¤": 3299,
      "íķľê°Ģ": 3300,
      "ë§Ĳíķ´": 3301,
      "ëªħíĴĪ": 3302,
      "ìĭľìĦ¸": 3303,
      "ë§Īì¼Ģ": 3304,
      "ë³¸ëĭ¤": 3305,
      "ìĥĿê²¼": 3306,
      "ì¹ĺì¦Ī": 3307,
      "ìķ¨ë²Ķ": 3308,
      "ëĬ¦ê²Į": 3309,
      "ìĭ¤ëĤ´": 3310,
      "ì°¾ëĬĶ": 3311,
      "íķĺëŁ¬": 3312,
      "ìĺ¤ë¥¸ìª½": 3313,
      "íķĺìļ°": 3314,
      "ëĦ¥": 3315,
      "gë§Īì¼ĵ": 3316,
      "íĺĲìĿĺ": 3317,
      "ë³¼ê¹Į": 3318,
      "ë¬´ê¸°": 3319,
      "ìŀ¥ì°©": 3320,
      "ìĭ¤íĮ¨": 3321,
      "íĮĮìķħ": 3322,
      "ëº": 3323,
      "ìľłëĭĪ": 3324,
      "ë³´ë©°": 3325,
      "ê°ķìĤ¬": 3326,
      "ë©¸": 3327,
      "ì¡°ë¦¬": 3328,
      "ì³¤ëĭ¤": 3329,
      "ë¹łë¥´ê²Į": 3330,
      "ìį¼": 3331,
      "ì¡¸ìĹħ": 3332,
      "ìĺģìĸĳ": 3333,
      "ìŀĪêµ¬": 3334,
      "ìĭľíĭ°": 3335,
      "ë¬´ê²Į": 3336,
      "ê»ı": 3337,
      "ìļ°ìĬ¹": 3338,
      "ìĦ±ê³¼": 3339,
      "ëŀ¨": 3340,
      "ë§ŀì¶Ķ": 3341,
      "ë©ĭì§Ħ": 3342,
      "ìłĲìĪĺ": 3343,
      "ìĬ¤íĬľ": 3344,
      "ê¼¼ê¼¼": 3345,
      "ë´¤ìĸ´": 3346,
      "ë°ľìĨ¡": 3347,
      "íı¬íĬ¸": 3348,
      "ìĺµëĭĪëĭ¤": 3349,
      "ê°Ģê¹Įìļ´": 3350,
      "ìŀĪìĹĪìĸ´": 3351,
      "ìŀłê¹Ĳ": 3352,
      "ëĬĺìĸ´": 3353,
      "16": 3354,
      "ë©¤ë²ĦìĭŃ": 3355,
      "ê³±": 3356,
      "ê³łìļ©": 3357,
      "ì°©ìļ©": 3358,
      "ëĤłì§ľ": 3359,
      "íķı": 3360,
      "ëĭīëĦ¤ìŀĦ": 3361,
      "ëĦĮ": 3362,
      "ë¶Ģìłķ": 3363,
      "ê¸°ëıĦ": 3364,
      "ìĥģê°Ģ": 3365,
      "íĮĮëĬĶ": 3366,
      "íĮĮíĭ°": 3367,
      "ê°ķëł¥": 3368,
      "ì£¼ìĿ¸ê³µ": 3369,
      "ìīĲ": 3370,
      "íķ¸ëĵľíı°": 3371,
      "ìĵ°ê¸°": 3372,
      "ë§¤ìĪĺ": 3373,
      "ë°ĺë©´": 3374,
      "ìķĦë¬´ë¦¬": 3375,
      "ë¯¼ì£¼ëĭ¹": 3376,
      "ìľ¼ëĭĪê¹Į": 3377,
      "ë³´ë©´ìĦľ": 3378,
      "14": 3379,
      "ìĺ¤ë¥´": 3380,
      "íĸĪìľ¼ë©°": 3381,
      "ëĮĢë¦¬": 3382,
      "ìĭľì§Ģ": 3383,
      "ìĿĺëıĦ": 3384,
      "íĮĮìĽĮ": 3385,
      "ì£¼ëª©": 3386,
      "ê·¸ëł¤": 3387,
      "ìºłíķĳ": 3388,
      "ìĺĢëįĺ": 3389,
      "ê³Ħìĭł": 3390,
      "ìĸ´ê¹¨": 3391,
      "íĨ±": 3392,
      "ì§Ģë©´": 3393,
      "ë§Īì°¬": 3394,
      "ëĮĢíĸī": 3395,
      "ìĳ": 3396,
      "ìĦ¸ìļ©": 3397,
      "ëįĶë¶Īìĸ´": 3398,
      "ìĭľíĬ¸": 3399,
      "ìĩł": 3400,
      "ë°ĶëĢĮ": 3401,
      "ìĭľì¼": 3402,
      "ìŀĪìĸ´ìķ¼": 3403,
      "ëĥīìŀ¥": 3404,
      "ë²Īê°ľ": 3405,
      "íİĺìĿ´ìĬ¤": 3406,
      "ëĵľëĿ¼ìĿ´": 3407,
      "25": 3408,
      "íķĺëĭĪê¹Į": 3409,
      "íĸĪëĦ¤": 3410,
      "ëĨĶ": 3411,
      "ë¶Īë²ķ": 3412,
      "ì§Ħì¶ľ": 3413,
      "ê¸°ë¦Ħ": 3414,
      "an": 3415,
      "ìĨĮíĨµ": 3416,
      "ì¡°ìļ©": 3417,
      "ìĹĪì§Ģë§Į": 3418,
      "ìĬ¤íĥ": 3419,
      "ì¶ľìĭł": 3420,
      "ê²½ëł¥": 3421,
      "ê³łìĨį": 3422,
      "ìĿ¼ìĸ´ëĤĺ": 3423,
      "íħĮìĬ¤íĬ¸": 3424,
      "ë³´ê±´": 3425,
      "ìĦ¼ìĬ¤": 3426,
      "ë¹Ħìľ¨": 3427,
      "ë§Īì¼ĢíĮħ": 3428,
      "ìĭ¶ìĿĢëį°": 3429,
      "ìĦ±ìĿ¸": 3430,
      "ì§ľë¦¬": 3431,
      "ìĻĶìĬµëĭĪëĭ¤": 3432,
      "ìĹ¬ìłĦíŀĪ": 3433,
      "ëĦĪë¬´ëĤĺ": 3434,
      "ìŀ¬ìĤ°": 3435,
      "ìĬ¤íĤ¨": 3436,
      "íħĮíģ¬": 3437,
      "ìĦŀ": 3438,
      "ìĺĢëĬĶëį°": 3439,
      "ê³łë§Ī": 3440,
      "ëĤĺê°Ī": 3441,
      "ëĤļìĭľ": 3442,
      "ê³Ħì¢Į": 3443,
      "ì²¨ë¶Ģ": 3444,
      "íĴĢìĸ´": 3445,
      "ë¹Ħë°Ģ": 3446,
      "ë²Ħëł¸": 3447,
      "ê²łëĭ¤ê³ł": 3448,
      "íķłê²Į": 3449,
      "ê·ľì¹Ļ": 3450,
      "ì£¼ìĭľëĬĶ": 3451,
      "ìĪĺíĸī": 3452,
      "ëŀĲëĭ¤": 3453,
      "ìĨĮì¤ĳ": 3454,
      "íĻĶë¬¼": 3455,
      "ìĨĲëĭĺ": 3456,
      "ì»¤ë²Ħ": 3457,
      "ì§ĢìłĲ": 3458,
      "ë¯¸ìĦ¸": 3459,
      "ìª¼": 3460,
      "êµĲìĤ¬": 3461,
      "ë§Īì°¬ê°Ģì§Ģ": 3462,
      "ëĭ¹ìĹ°íŀĪ": 3463,
      "ë§¤ìŀħ": 3464,
      "ìĿĺíķ´": 3465,
      "íıīìĥĿ": 3466,
      "ìĭľíĤ¤ëĬĶ": 3467,
      "íĩ´ê·¼": 3468,
      "ì¶ľìĤ°": 3469,
      "ëĭ¨ëıħ": 3470,
      "ê·¸ëŁ¬ë©´": 3471,
      "ë©ĶìĿ¸": 3472,
      "íĶĮëĿ¼": 3473,
      "ë§¤íĬ¸": 3474,
      "ë¶Ģë¥´": 3475,
      "ìĿ¸ì¹ĺ": 3476,
      "ê³¼ëĬĶ": 3477,
      "ìĺ¹": 3478,
      "íķľê¸Ģ": 3479,
      "ëĵ¤ìĹ¬": 3480,
      "íıīíĻĶ": 3481,
      "ìŀ¬ìłķ": 3482,
      "ìķĬëĭ¤": 3483,
      "ê°ľìłķ": 3484,
      "ëĮĢì¤ĳ": 3485,
      "ìĹĲìĬ¤": 3486,
      "ëĨĴìķĦ": 3487,
      "ë¶ĢíĴĪ": 3488,
      "ìĿĺìŀĲ": 3489,
      "ìĮ¤": 3490,
      "ì¶ľìŀ¥": 3491,
      "ìķłíĶĮ": 3492,
      "ê·¸ëĤĺ": 3493,
      "ìķĦëĤ´": 3494,
      "ëŀį": 3495,
      "ìĬµëĭĪê¹Į": 3496,
      "íİĺìĿ´": 3497,
      "ìĭ¶ìĸ´ìĦľ": 3498,
      "ëĽ°ìĸ´": 3499,
      "ë³´ìķĪ": 3500,
      "ìĺ¤íĶĦ": 3501,
      "ìłĦíķ´": 3502,
      "ìŃī": 3503,
      "ìĦ±ëĬ¥": 3504,
      "íĻķìĭ¤íŀĪ": 3505,
      "ëģĵ": 3506,
      "ëĭ·ì»´": 3507,
      "ë°°íĦ°ë¦¬": 3508,
      "ìłĪì°¨": 3509,
      "ìĿĺì§Ģ": 3510,
      "íļ¨ìľ¨": 3511,
      "ìĿ¸íĦ°ë·°": 3512,
      "ë°Ķê¿Ķ": 3513,
      "ë°Ķíĥķ": 3514,
      "ìĹĨëĭ¤ëĬĶ": 3515,
      "ì°ľ": 3516,
      "ìķĪìĭ¬": 3517,
      "ê³µê°Ĳ": 3518,
      "ê³¨ëĵľ": 3519,
      "ëŀĺëıĦ": 3520,
      "ìĿ´ìĭł": 3521,
      "ëł¬": 3522,
      "ëĪĦêµ°": 3523,
      "íĥ±": 3524,
      "ìķīìķĦ": 3525,
      "ëĤľëĭ¤": 3526,
      "ë¸Ĳ": 3527,
      "ìķĦê¹Į": 3528,
      "ìį¬": 3529,
      "ìłĸ": 3530,
      "ë°ķëŀĮ": 3531,
      "ìĨĲíķ´": 3532,
      "ì£¼ìĸ´": 3533,
      "ìĹĶì§Ħ": 3534,
      "ìłľìķĪ": 3535,
      "íľ´ëĮĢíı°": 3536,
      "ë¬´ìĭľ": 3537,
      "ìĭ¶ëĦ¤": 3538,
      "êµ¬ì²´": 3539,
      "ëĵ¤ìĹĪëĭ¤": 3540,
      "ìĽ¨ìĸ´": 3541,
      "ìħĪ": 3542,
      "íķĺìħĶìķ¼": 3543,
      "ëª¨ëĭĪ": 3544,
      "ë²Ħë¦°": 3545,
      "ì»¤íĶĮ": 3546,
      "ê³µìłķ": 3547,
      "ë·Ķ": 3548,
      "ìłĦìĽĲ": 3549,
      "ìĤ¬ìłķ": 3550,
      "ì¡°ëªħ": 3551,
      "ëłīíĬ¸": 3552,
      "ë°ĺëıĦ": 3553,
      "ì§ģìĺģ": 3554,
      "ìłķìĽĲ": 3555,
      "ìķĦìĭľ": 3556,
      "ë¯¹": 3557,
      "ìŀĪìĹĪìĬµëĭĪëĭ¤": 3558,
      "ë§İëĭ¤": 3559,
      "ëļĿ": 3560,
      "ëħ¼ìĿĺ": 3561,
      "ëĤ³": 3562,
      "íĶ¼ìķĦ": 3563,
      "ìĨĮëħĢ": 3564,
      "ìĥģì²ĺ": 3565,
      "íĬ¹ìłķ": 3566,
      "ê¸ĭ": 3567,
      "íİĻ": 3568,
      "ëĮĢëĭ¨": 3569,
      "ëĿ¼ìĿ´íĬ¸": 3570,
      "ë§ĪìĦ¸ìļĶ": 3571,
      "íĨµì¦Ŀ": 3572,
      "ì²ľë§Į": 3573,
      "ìłľê¸°": 3574,
      "ë²Ķì£Ħ": 3575,
      "ìĨĮìľł": 3576,
      "íķĦëıħ": 3577,
      "ìĸĢ": 3578,
      "ìĸ´ëĸł": 3579,
      "ìļ¤": 3580,
      "ìĸ¸ê¸ī": 3581,
      "ë¬´ì§Ģ": 3582,
      "ì§ĢëĭĪ": 3583,
      "ëıĮëł¤": 3584,
      "ê²ĢíĨł": 3585,
      "ìĿ¼ë¦¬": 3586,
      "ìŀĲëħĢ": 3587,
      "ìĻ¸ë¶Ģ": 3588,
      "ë¶Īêµ¬íķĺê³ł": 3589,
      "ìķĦë¬´ëŀĺëıĦ": 3590,
      "ê²łëĭ¤ëĬĶ": 3591,
      "ê°ĢìĪĺ": 3592,
      "ìĤ¬ë§Ŀ": 3593,
      "ìĺ¤ë¦¬": 3594,
      "ë°Ķë¥¸": 3595,
      "ë§Ļ": 3596,
      "ëĶĶì§ĢíĦ¸": 3597,
      "ë°ĶëĶĶ": 3598,
      "ìµľìĦł": 3599,
      "be": 3600,
      "ìĺ¬ë¦°": 3601,
      "íķ©ë¦¬": 3602,
      "ìĺ¤ëĭĪ": 3603,
      "ìĭŃìĭľ": 3604,
      "ë°´ëĵľ": 3605,
      "ìĭľíĤ¨": 3606,
      "ëĤ«": 3607,
      "ìĿ´ë¦¬": 3608,
      "ìĿĺìĭĿ": 3609,
      "ëıĻìĿĺ": 3610,
      "ìĿĳìĽĲ": 3611,
      "ìĬ¤íĬľëĶĶìĺ¤": 3612,
      "ëĵľëĶĶìĸ´": 3613,
      "ìĿ¼ìľ¼": 3614,
      "ìĥģëĭ¹íŀĪ": 3615,
      "ëĲľëĭ¤ëĬĶ": 3616,
      "ìķ¼êµ¬": 3617,
      "ê°ĲëıĻ": 3618,
      "ë°°ê²½": 3619,
      "ìķµ": 3620,
      "ìŀĲê·¹": 3621,
      "ëª°ëĿ¼": 3622,
      "ìľĹ": 3623,
      "ì§ĢìĿ¸": 3624,
      "ìĤ´ê³ł": 3625,
      "íĸ¥ìĥģ": 3626,
      "ë§ŀê²Į": 3627,
      "ë¬´ìĦľ": 3628,
      "ë°Ľì§Ģ": 3629,
      "íĨłìļĶìĿ¼": 3630,
      "ë¡ľìļ°": 3631,
      "ëģ¼ë¦¬": 3632,
      "ë³´ì¡°": 3633,
      "17": 3634,
      "ìĥģìĥģ": 3635,
      "ìĽłëĭ¤": 3636,
      "ìĨĮìĨ¡": 3637,
      "ìķĬìķĦìĦľ": 3638,
      "ëĲĺìĦ¸ìļĶ": 3639,
      "ê²½ë¶ģ": 3640,
      "ìķĬìľ¼ë©´": 3641,
      "ê³¼ìĿ¼": 3642,
      "ë§ĮìĿĦ": 3643,
      "íĸ¥íĽĦ": 3644,
      "ê°ķíķľ": 3645,
      "ë§ĪëĶĶ": 3646,
      "ìĦłíĺ¸": 3647,
      "ì¶Ķìĸµ": 3648,
      "ê¸°êµ¬": 3649,
      "ìĻĢìĿ¸": 3650,
      "ê±°ìĭ¤": 3651,
      "ì¶ľì²ĺ": 3652,
      "ì°¨ìĽĲ": 3653,
      "íķ´ìĦĿ": 3654,
      "ë¦¬ìĬ¤íĬ¸": 3655,
      "íĹĪìļ©": 3656,
      "ìŀĪëĭµëĭĪëĭ¤": 3657,
      "ê±¸ìĿ´": 3658,
      "ëĮĢìĤ¬": 3659,
      "ëĭ´ìķĦ": 3660,
      "ìĺĪë¹Ħ": 3661,
      "ìĸ´ë¥¸": 3662,
      "ë¼": 3663,
      "ìĸ¸ìłľëĤĺ": 3664,
      "íĹī": 3665,
      "ê¾¸ì¤ĢíŀĪ": 3666,
      "ëª»íķ´": 3667,
      "ìĥĿìĿ¼": 3668,
      "ëį´": 3669,
      "ë©Ģë¦¬": 3670,
      "26": 3671,
      "ìĤ¬ëıĦ": 3672,
      "ê³¼ëª©": 3673,
      "ë·°íĭ°": 3674,
      "ìłĬìĿĢ": 3675,
      "ìĿ¸ê·¼": 3676,
      "ì¹ĺíĤ¨": 3677,
      "ìĿĺë¥ĺ": 3678,
      "ìŀĲìĦ¸íŀĪ": 3679,
      "ë³´ìĿ¼": 3680,
      "ìŀĲë³¸": 3681,
      "ìĿ´ìłł": 3682,
      "ë³´ëĭĪê¹Į": 3683,
      "íĨµíķ´ìĦľ": 3684,
      "íİĮ": 3685,
      "ë²ķë¥ł": 3686,
      "ë¦¬ìĺ¤": 3687,
      "ì·¨ëĵĿ": 3688,
      "íĺķìĦ±": 3689,
      "ì°¨ëĭ¨": 3690,
      "ì±ĦëĦĲ": 3691,
      "ì£¼ìĭ¤": 3692,
      "ìĿĮë£Į": 3693,
      "ì·¨íĸ¥": 3694,
      "ê¹ĥ": 3695,
      "ì´Īë³´": 3696,
      "ëıĭ": 3697,
      "ìŀ¬íĮĲ": 3698,
      "íİ¼ì³Ĳ": 3699,
      "ì°¾ê¸°": 3700,
      "ìĭ¶ìĬµëĭĪëĭ¤": 3701,
      "ìĿ¸ìĪĺ": 3702,
      "ìĿ´ìĹĪìĬµëĭĪëĭ¤": 3703,
      "ë¯¿ê³ł": 3704,
      "ìķĦìļ¸": 3705,
      "ëĤĺìĿ´íĤ¤": 3706,
      "ëĶ°ëľ»íķľ": 3707,
      "ëĵ¤ìĿ´": 3708,
      "ìĨĶì§ģíŀĪ": 3709,
      "ê°ĦìĭĿ": 3710,
      "íĮ¨ëĵľ": 3711,
      "ìĹ°ê³Ħ": 3712,
      "ìĪ«": 3713,
      "ìĦ¸ì¢ħ": 3714,
      "íħĮìĿ¼": 3715,
      "ëĤĺìĻĢìĦľ": 3716,
      "ìĹ°ìĪĺ": 3717,
      "íĦ±": 3718,
      "íĪ¬íĳľ": 3719,
      "ì²Ńì£¼": 3720,
      "ì¶°": 3721,
      "êµŃìĪĺ": 3722,
      "ìĿ¼ìŀĲë¦¬": 3723,
      "íİĢëĵľ": 3724,
      "íĭ°ì¼ĵ": 3725,
      "ëħ¼ëŀĢ": 3726,
      "ì§ĢíĤ¤": 3727,
      "ì²ľìĹ°": 3728,
      "íķĺê³łìŀĲ": 3729,
      "ë¹Ĺ": 3730,
      "íķĦë¦Ħ": 3731,
      "28": 3732,
      "íĢĦ": 3733,
      "ì§Ħìĭ¬": 3734,
      "ìĶ»": 3735,
      "ëĭ¤ìĪĺ": 3736,
      "ë°ĺì°¬": 3737,
      "21": 3738,
      "ì´Ŀë¦¬": 3739,
      "ìĭ¹": 3740,
      "íı¬íĨł": 3741,
      "ëłĮì¦Ī": 3742,
      "íľ´ê°Ģ": 3743,
      "ë¹ĦíĬ¸": 3744,
      "ëª¨ìķĦ": 3745,
      "ì¢ĭì§Ģ": 3746,
      "ì¶ľìĦĿ": 3747,
      "ì°©íķľ": 3748,
      "ëĿĦ": 3749,
      "íľł": 3750,
      "ê°ĵ": 3751,
      "ë§ĲíķĺëĬĶ": 3752,
      "ë¯¸ìĨĮ": 3753,
      "ìĹĨëĬĶëį°": 3754,
      "ë¬´ìĥģ": 3755,
      "ë³´ìĭľê³ł": 3756,
      "ì¡°ìĸ¸": 3757,
      "ëį§ë¶Ļ": 3758,
      "íķĺê¸´": 3759,
      "ëĥīìŀ¥ê³ł": 3760,
      "ìŀĦê¸Ī": 3761,
      "íĥĢìŀħ": 3762,
      "ìĸ´ì©Ķ": 3763,
      "ì§ĢëĤľëĭ¬": 3764,
      "ê¸°ì§Ģ": 3765,
      "ë¬¼ì§Ī": 3766,
      "ë¸Įë¦¬": 3767,
      "ìĹ°ìŀ¥": 3768,
      "ë°Ń": 3769,
      "ìľłìłĢ": 3770,
      "ê°Ģì£½": 3771,
      "ë´ĲìĦľ": 3772,
      "ìĻĶëĬĶëį°": 3773,
      "ë²łìĬ¤íĬ¸": 3774,
      "ìłķë¹Ħ": 3775,
      "ëĤ®ìĿĢ": 3776,
      "ë²ĦìłĦ": 3777,
      "ëĶĶìħĺ": 3778,
      "ìļ©ëŁī": 3779,
      "ë¶ĢìľĦ": 3780,
      "ì¢ħìĿ´": 3781,
      "ê±į": 3782,
      "ë³´ìĪĺ": 3783,
      "ìħī": 3784,
      "ì§ĢìĤ¬": 3785,
      "ëĦ¤íĬ¸": 3786,
      "ìĸ¸ìĸ´": 3787,
      "ìĿĺìĭ¬": 3788,
      "ê·ľìłľ": 3789,
      "ìļ°ëĵľ": 3790,
      "ìĽĮëĤĻ": 3791,
      "ë§İê³ł": 3792,
      "ê¸°ëĭ¤ë¦¬": 3793,
      "ìķĦë¥´": 3794,
      "ë¦¬ì¡°": 3795,
      "ë©Ī": 3796,
      "ë¨¹ìľ¼ë©´": 3797,
      "ì°įìĿĢ": 3798,
      "ìĹ´ìĸ´": 3799,
      "ì¡°ê¸ĪìĶ©": 3800,
      "ìłĢëŁ°": 3801,
      "ë»Ķ": 3802,
      "ë¶ĢìĿ¸": 3803,
      "ìłķê¸°": 3804,
      "ëłĪìĿ¸": 3805,
      "ë©ĶìĿ´íģ¬": 3806,
      "ì¹ĺì§Ģ": 3807,
      "ë§ĪìĬ¤íģ¬": 3808,
      "íĽĮ": 3809,
      "ìķĦìī½": 3810,
      "ëĤ´ê¸°": 3811,
      "íĥĢìĿ´ìĸ´": 3812,
      "ë¦¬ëįĶ": 3813,
      "ê³łê°ľ": 3814,
      "ëĭ¬ìĦ±": 3815,
      "ë§¤ëĭĪ": 3816,
      "ê¸°ëĭ¤ëł¤": 3817,
      "ìŀħëł¥": 3818,
      "ëł¤êµ¬": 3819,
      "ëĮĢìĹ¬": 3820,
      "ëĺ¥": 3821,
      "ë¡¬": 3822,
      "ì½ĺíħĲì¸ł": 3823,
      "ìĿ´ìĭľ": 3824,
      "ìĦ¤ë¦½": 3825,
      "ê°Ģë¡ľ": 3826,
      "23": 3827,
      "íİ¸ë¦¬": 3828,
      "ì¤Ħìĸ´": 3829,
      "ìĹĨì§Ģë§Į": 3830,
      "ì¹´ì¹´ìĺ¤": 3831,
      "ìĭ¸ê²Į": 3832,
      "ìĬ¤íĤ¬": 3833,
      "êµ¬ë¶Ħ": 3834,
      "íĪ¬ëªħ": 3835,
      "ìĦ±íĺķ": 3836,
      "ë²ĦíĬ¼": 3837,
      "ìĺ¬ë¦¼íĶ½": 3838,
      "ë§Įëĵ¤ê³ł": 3839,
      "ìİ": 3840,
      "ìĭłìĦł": 3841,
      "ìĤ½": 3842,
      "ê´ľì°®ìĿĢ": 3843,
      "ê±¸ë¦¬": 3844,
      "13": 3845,
      "ë¶Ħë¦¬": 3846,
      "ì¶©ê²©": 3847,
      "ìłĦì£¼": 3848,
      "ìĬ¤ì¼Ģ": 3849,
      "27": 3850,
      "ë¶Ģì²ľ": 3851,
      "ìłķìĭĿ": 3852,
      "ë²ĶìľĦ": 3853,
      "ë¨¹ìľ¼": 3854,
      "ìıŁ": 3855,
      "ìļĶìĨĮ": 3856,
      "ë³´ëĿ¼": 3857,
      "22": 3858,
      "ëĪĦëĤĺ": 3859,
      "ëĿ¼ìļ´ëĵľ": 3860,
      "ê°ĲìĦ±": 3861,
      "ëĤĺìĺ¤ê³ł": 3862,
      "ìµľìĭł": 3863,
      "ë¹¼ê³ł": 3864,
      "ìĭľê³Ħ": 3865,
      "ë³į": 3866,
      "ë¬´íķľ": 3867,
      "ëĶĺ": 3868,
      "ëª¨ëĵľ": 3869,
      "ì£¼íĸī": 3870,
      "íĸĪëįĶëĭĪ": 3871,
      "ì½ĶíĬ¸": 3872,
      "ìłĳê·¼": 3873,
      "ë§Īìĭľ": 3874,
      "ìĭĿìķĦìĿ´ëĶĶ": 3875,
      "ëĲĺëĦ¤": 3876,
      "ë°¸": 3877,
      "ë²Įìĸ´": 3878,
      "íĮĮë¦¬": 3879,
      "ìłľìĿ´": 3880,
      "íĬ¸ëłĪìĿ´": 3881,
      "ìłĦê³µ": 3882,
      "ìĭľìłĲ": 3883,
      "ëħ¸ìĿ¸": 3884,
      "ë°©íķĻ": 3885,
      "ëį®": 3886,
      "or": 3887,
      "ê°ľë³Ħ": 3888,
      "ë³´ìĿ´ì§Ģ": 3889,
      "ë¯¸ìļ©": 3890,
      "ë¨¼íĬ¸": 3891,
      "ìĽĲíķĺìĭľëĬĶ": 3892,
      "ìłĦë°ĺ": 3893,
      "ëħĦëıĦ": 3894,
      "ëķĢ": 3895,
      "ìĹĪëĦ¤": 3896,
      "ì°¨ë³Ħ": 3897,
      "ìĿ´ëķĮ": 3898,
      "ë°°ì¹ĺ": 3899,
      "ëĵľëłĪìĬ¤": 3900,
      "ëĤĺëĪł": 3901,
      "êµĲìłķ": 3902,
      "íĨłë¡ł": 3903,
      "ë¨¹ìĿĢ": 3904,
      "ëĤĺíĥĢëĤ¬ëĭ¤": 3905,
      "ìľłìĿ¼": 3906,
      "ê·¸ìłĢ": 3907,
      "ëĮĦ": 3908,
      "ìĺģìĹŃ": 3909,
      "ë²łíĬ¸": 3910,
      "ê°Īë¹Ħ": 3911,
      "ë³´ìŀħëĭĪëĭ¤": 3912,
      "ê±°ì³Ĳ": 3913,
      "ìĺ¤ì§Ģ": 3914,
      "ìĬ¤íĤ¤": 3915,
      "ê³łìłķ": 3916,
      "íŀĪëĬĶ": 3917,
      "ê°Ļê³ł": 3918,
      "íĿĲë¦Ħ": 3919,
      "ìĭľê°ģ": 3920,
      "ì¶¤": 3921,
      "ìĽĲì¹Ļ": 3922,
      "ìľ¼ë¡ľë¶ĢíĦ°": 3923,
      "ìĿĺë¬´": 3924,
      "ë§µ": 3925,
      "ì²´ê²°": 3926,
      "ê°Ģê¹ĮìĿ´": 3927,
      "êµŃë¹Ħ": 3928,
      "ë¦¬ë·°": 3929,
      "ê°Ģë³į": 3930,
      "ì²ľìķĪ": 3931,
      "ê³µìĿ¸": 3932,
      "ìĤ¬ìĦľ": 3933,
      "ëĤĺì§Ģ": 3934,
      "ìłķê·ľ": 3935,
      "íĿī": 3936,
      "ëª¨ìħĺ": 3937,
      "íĴĪëª©": 3938,
      "ìĿ¸ëł¥": 3939,
      "ìĺĪìĪĺ": 3940,
      "ëļ«": 3941,
      "ì±Ħê¶Į": 3942,
      "ë¹ĦíĮĲ": 3943,
      "ìķĬìľ¼": 3944,
      "ê¸°ìĹĲ": 3945,
      "ìĸ´ëł¤ìĽĢ": 3946,
      "ìŀ¬ëĭ¨": 3947,
      "ê³łë§Ļ": 3948,
      "ê·¸ë¦ĩ": 3949,
      "íķłê»ĺ": 3950,
      "ê¸Īë°©": 3951,
      "ë§ĳ": 3952,
      "ê¹ĬìĿĢ": 3953,
      "ìĸ´ëıĦ": 3954,
      "ì¶ľê³ł": 3955,
      "íĥĿìĭľ": 3956,
      "ì»¤ë®¤": 3957,
      "ìĥĿê²¨": 3958,
      "ìĽĶìĦ¸": 3959,
      "íĨµê³¼": 3960,
      "ëĭ¤ìĿ´ëłīíĬ¸": 3961,
      "ìĪŃ": 3962,
      "me": 3963,
      "ì£ĦìĨ¡íķ©ëĭĪëĭ¤": 3964,
      "ìĦłë°°": 3965,
      "ì¡°ì°¨": 3966,
      "ìĪĺê³ł": 3967,
      "ìĦ¸ìĿ´": 3968,
      "ë¼Ī": 3969,
      "ìĥģíĺ¸": 3970,
      "ìļ°ìľł": 3971,
      "ë¥´ê¸°": 3972,
      "ìĹĺë¦¬": 3973,
      "íĶ¼ìŀĲ": 3974,
      "ë©Ķëª¨": 3975,
      "ëĮĢì¶©": 3976,
      "ë¦¬ìĸ¼": 3977,
      "ê´ĢëŀĮ": 3978,
      "ëĮĢëĭµ": 3979,
      "ê³¼ìłľ": 3980,
      "ëłĪë²¨": 3981,
      "ìļ´ëĵľ": 3982,
      "ë§ĮìĿ´": 3983,
      "ìĭ¤ìĪĺ": 3984,
      "ìĬ¤íħ": 3985,
      "ì´Īë°ĺ": 3986,
      "ë³¸ìĤ¬": 3987,
      "ìľłíķĻ": 3988,
      "ì¦Ĳê±°": 3989,
      "ê³Ħê¸°": 3990,
      "ìĥģìľĦ": 3991,
      "ìĭľìĦł": 3992,
      "ë¹ĦíĥĢ": 3993,
      "ìĨĮíĻĶ": 3994,
      "ìĿ´íĥĪ": 3995,
      "ìķłëĭĪ": 3996,
      "ì»¨ìĦ¤": 3997,
      "íĽĦíļĮ": 3998,
      "ëĭ¦": 3999,
      "ê±¸ìĿĮ": 4000,
      "íĭĪ": 4001,
      "ìĥģìŀ¥": 4002,
      "ìŀĪì£ł": 4003,
      "ëĭĪê¹Ĳ": 4004,
      "ëĤ´ë¦¬": 4005,
      "ìĬ¤íĨłìĸ´": 4006,
      "ìłĳìĨį": 4007,
      "ë¡ľëıĦ": 4008,
      "ê°Ĳê¸°": 4009,
      "ë³´ìķĦ": 4010,
      "ìľĦë¡ľ": 4011,
      "ìĿ´ìĸ´ìĦľ": 4012,
      "ìĭľíĤ¤ê³ł": 4013,
      "ì´Ŀìŀ¥": 4014,
      "ì»¤ë®¤ëĭĪ": 4015,
      "ì°½ìĽĲ": 4016,
      "ì§ĢëĤ´": 4017,
      "ë§ŀì§Ģ": 4018,
      "ìłĢê°Ģ": 4019,
      "ê³Ħìĭľ": 4020,
      "ë¥¸ëĭ¤": 4021,
      "ì¦Ĳê²ģ": 4022,
      "29": 4023,
      "ìĪĺì¹ĺ": 4024,
      "ìĿ¼ë³´": 4025,
      "ì£¼ëħĦ": 4026,
      "ê·¸ê±¸": 4027,
      "ìłĦëł¥": 4028,
      "ìŃĪ": 4029,
      "ì¢ĭê²Į": 4030,
      "ë³´ëĥĪ": 4031,
      "ëĦĵìĿĢ": 4032,
      "ë¶Ģì§Ģ": 4033,
      "ìĿ´ê¸°ëıĦ": 4034,
      "ìĤ¬íĥľ": 4035,
      "íŀĺëĵ¤ìĸ´": 4036,
      "ìłĢìŀ¥": 4037,
      "íĶĦë¦°": 4038,
      "ì¶ľê·¼": 4039,
      "íĻĶíķĻ": 4040,
      "ëĨįìĹħ": 4041,
      "ì¦Ĳê¸¸": 4042,
      "êµ¬ë¦¬": 4043,
      "ê¸°ë¶Ģ": 4044,
      "ë¶ī": 4045,
      "ìĤĲ": 4046,
      "ì²ĺë¶Ħ": 4047,
      "ìĥĪëģ¼": 4048,
      "ë§Īíģ¬": 4049,
      "ìĨĮíĶĦíĬ¸": 4050,
      "ë¶ĢíĦ°ëĬĶ": 4051,
      "ë³µíķ©": 4052,
      "ëŁ¬ìĭľìķĦ": 4053,
      "ë¬´ìĹŃ": 4054,
      "ìļ°ì£¼": 4055,
      "ê°ĲìĹ¼": 4056,
      "ì¢ģ": 4057,
      "ê³ĦìłĪ": 4058,
      "ê³łìĨĮ": 4059,
      "ê·¸ëŁ°ê°Ģ": 4060,
      "íķłë¨¸ëĭĪ": 4061,
      "ëıĻê¸°": 4062,
      "ëħ¸ì¶ľ": 4063,
      "ìłģìłĪ": 4064,
      "êµ½": 4065,
      "ìĭľíĤ¬": 4066,
      "ìĬ¤íĮĮ": 4067,
      "êµ¬ìĹŃ": 4068,
      "ìľłëıĦê¸Ģ": 4069,
      "ë²łìĿ´ë¹Ħ": 4070,
      "ë³ĢëıĻ": 4071,
      "íķĺëĵľ": 4072,
      "ìĭ¬ê°ģ": 4073,
      "ëī´ìļķ": 4074,
      "ë¯¼ê°Ħ": 4075,
      "ê°ĪìķĦ": 4076,
      "ìĿĺíļĮ": 4077,
      "ìĹĪìĿĦ": 4078,
      "ê°±": 4079,
      "ë¦¬ì¡°íĬ¸": 4080,
      "ë¬¶": 4081,
      "íĴįê²½": 4082,
      "íĻķìŀ¥": 4083,
      "ëĶĶìĬ¤": 4084,
      "ìŀĶì¹ĺ": 4085,
      "ê³¼ìĹ°": 4086,
      "ìķĦëĭĪì§Ģë§Į": 4087,
      "ëĭ¨ê¸°": 4088,
      "ê·¼ìľ¡": 4089,
      "ê³łì¶Ķ": 4090,
      "ê°ķìłľ": 4091,
      "ëª¨ëĭĪíĦ°": 4092,
      "ìĿ´íĭĢ": 4093,
      "ìĦ°ëĭ¤": 4094,
      "ë°©ì¹¨": 4095,
      "ìĻłì§Ģ": 4096,
      "ìĺ¬ë¦´": 4097,
      "ìŀĲì¹ĺ": 4098,
      "ìĿ´ìĻ¸": 4099,
      "ë´¤ëĭ¤": 4100,
      "ëĬĲëĤĦ": 4101,
      "ê³µêµ¬": 4102,
      "ìĹ°ìĺĪ": 4103,
      "ë®¤ì§Ģ": 4104,
      "íĤ¤ìĽĮ": 4105,
      "ê³ĦìĹ´": 4106,
      "ë©´ìłģ": 4107,
      "ìĪĺëŁī": 4108,
      "ìķĦëĭĲê¹Į": 4109,
      "ëª°ëŀĲ": 4110,
      "ë§ĪìĤ¬ì§Ģ": 4111,
      "ìĹ°ê¸Ī": 4112,
      "ë§ĽìŀĪê²Į": 4113,
      "ìĪĺë¶Ħ": 4114,
      "ëĭ¹ìŀ¥": 4115,
      "ìī¬ìļ´": 4116,
      "íıīìĿ¼": 4117,
      "ê³µì£¼": 4118,
      "ìĦľë²Ħ": 4119,
      "ëĤĺëĭ¤": 4120,
      "ë§Ĳë¨¸ë¦¬": 4121,
      "ìĭĿë¬¼": 4122,
      "ëĪĦêµ°ê°Ģ": 4123,
      "ì¡°ê¸°": 4124,
      "ìłķìĪĺ": 4125,
      "ëĲĺê²Į": 4126,
      "ê¸įìłķ": 4127,
      "ë¯¸ëĶĶìĸ´": 4128,
      "íĻĶìŀ¬": 4129,
      "ëįĶë¸Ķ": 4130,
      "íĺĳìĥģ": 4131,
      "ìĸ´ë¨¸": 4132,
      "ìĿ¼ì²´": 4133,
      "ê±°ë¶Ģ": 4134,
      "ìī½ì§Ģ": 4135,
      "ìķĦìłĢ": 4136,
      "íĥľìĸĳ": 4137,
      "ê¸´ìŀ¥": 4138,
      "ìłĦëħĦ": 4139,
      "ìĿ´ë»Ĳ": 4140,
      "ëĭ¤ëĭĪëĬĶ": 4141,
      "íĮģ": 4142,
      "íĿĶëĵ¤": 4143,
      "ìĭľëĤ´": 4144,
      "ì©į": 4145,
      "ë§ĮíĻĶ": 4146,
      "ìłĦëĤ¨": 4147,
      "ê·¼ê±°": 4148,
      "ì£¼ìħĶìķ¼": 4149,
      "ë°ľëĿ¼": 4150,
      "ìĿ´ëŀįëĭĪëĭ¤": 4151,
      "íĺķìĭĿ": 4152,
      "ìķĦìĺĪ": 4153,
      "ê°ĢëŁī": 4154,
      "ìħ¨ëĤĺ": 4155,
      "íķ´ìĸĳ": 4156,
      "ìĥĪìļ°": 4157,
      "ê·Ģì°®": 4158,
      "íķłë¶Ģ": 4159,
      "ëľ°": 4160,
      "ê°ĢìļĶ": 4161,
      "ê¸ĪìļĶìĿ¼": 4162,
      "ìĹħëį°ìĿ´íĬ¸": 4163,
      "ë³´ëĭ¨": 4164,
      "ë©ĶìĿ´íģ¬ìĹħ": 4165,
      "ëįĺì§Ģ": 4166,
      "ìļ©ê¸°": 4167,
      "íĺ¸íĿ¡": 4168,
      "ë¹Ħìĭ¼": 4169,
      "íĽĦë°ĺ": 4170,
      "ìľłìĤ°": 4171,
      "ìŀ¥ì¹ĺ": 4172,
      "ì£¼ëıĦ": 4173,
      "íİ¸íķľ": 4174,
      "ì§Ģíķĺì²ł": 4175,
      "íĻķìĤ°": 4176,
      "íĥĵ": 4177,
      "ë¹¡": 4178,
      "ìķĶíĬ¼": 4179,
      "ëĭ¤ìĨĮ": 4180,
      "ìľĦì£¼": 4181,
      "ëĮĢìŀ¥": 4182,
      "ìĭľìĪł": 4183,
      "ê³łíĨµ": 4184,
      "ë²Ļ": 4185,
      "íĻĪìĩ¼íķĳ": 4186,
      "ëľ¯": 4187,
      "ì½ĶìĿ¸": 4188,
      "ì§§ìĿĢ": 4189,
      "ë§º": 4190,
      "ë²łíĬ¸ëĤ¨": 4191,
      "ë¬¼ë¥ĺ": 4192,
      "ê´ľì°®ìķĦ": 4193,
      "ìĭ¤íĹĺ": 4194,
      "ëıħë¦½": 4195,
      "íĻĶëł¤": 4196,
      "íĭ¸": 4197,
      "ì¦Ŀëªħ": 4198,
      "ë§¤ì£¼": 4199,
      "ì¡°ê°ģ": 4200,
      "ë³´ëŁ¬": 4201,
      "ìłķìĿĺ": 4202,
      "ì¢ĭìķĺ": 4203,
      "ê°Ģìĭľ": 4204,
      "ìłĦíĺķ": 4205,
      "ìĿ´ë¯Ģë¡ľ": 4206,
      "ëİħ": 4207,
      "íĭ°ë¸Į": 4208,
      "ìĽ°": 4209,
      "íĤ¤ë¡ľ": 4210,
      "ì¦Ŀê±°": 4211,
      "ëĸłëĤĺ": 4212,
      "ìĹ°ì£¼": 4213,
      "ê²Įëĭ¤ê°Ģ": 4214,
      "ë³´ê²Į": 4215,
      "íĴĢìĿ´": 4216,
      "ì²łìłĢ": 4217,
      "ë¶ĢëŁ¬": 4218,
      "íĹ¤ëĵľ": 4219,
      "ìĹ¬ìķ¼": 4220,
      "ê°ĶëĬĶëį°": 4221,
      "ìĸĳëħĲ": 4222,
      "ê·¸ëĤł": 4223,
      "ëĨįíĺĳ": 4224,
      "ìŀĲë§ĪìŀĲ": 4225,
      "íĢĦë¦¬íĭ°": 4226,
      "ìĤ¬ìĥģ": 4227,
      "ìĿ¸íĺķ": 4228,
      "ê°ĲìŀĲ": 4229,
      "ìłľíľ´": 4230,
      "ë³´ìĭ¤": 4231,
      "ë´ĩ": 4232,
      "ëĲľëĭ¤ë©´": 4233,
      "ìĤ°ì±ħ": 4234,
      "íĨµìĿ¼": 4235,
      "ì¼ĢìĿ´ë¸Ķ": 4236,
      "ìĿ¸êµ¬": 4237,
      "ê²ĢìĿĢ": 4238,
      "ê³łìĤ¬": 4239,
      "ìķĬëĤĺ": 4240,
      "ê³µëª¨": 4241,
      "ì¤ĳëĭ¨": 4242,
      "ëĤĺìģľ": 4243,
      "ì²«ì§¸": 4244,
      "ìĭ¬ìŀ¥": 4245,
      "ê±°ì§ĵ": 4246,
      "ê³µëĭ¨": 4247,
      "íĸĪìľ¼ëĤĺ": 4248,
      "ê²°ë¡ł": 4249,
      "ìłĢê²ĥ": 4250,
      "ìķĦìłĢìĶ¨": 4251,
      "ìĹħì¢ħ": 4252,
      "er": 4253,
      "ìĦ¸ìĽĶ": 4254,
      "ê±¸ê¹Į": 4255,
      "íķĺìĭľê¸¸": 4256,
      "ëª»íĸĪëĭ¤": 4257,
      "ìĻĢëĮĢ": 4258,
      "ll": 4259,
      "ìŀĲì¼ĵ": 4260,
      "ë°ĶìĿ´ìĺ¤": 4261,
      "ìķŀëĳĲê³ł": 4262,
      "ìĺ¨ëıĦ": 4263,
      "ë²łë¦¬": 4264,
      "ëĭ´ë°°": 4265,
      "ìłĢëłĩê²Į": 4266,
      "ê·ĢìĹ½": 4267,
      "ì²ŃìĻĢëĮĢ": 4268,
      "ë¹Ħì¤ĳ": 4269,
      "ìĺ¤ê¸°": 4270,
      "ë¶Ģìĥģ": 4271,
      "ìľĦíķĺìĹ¬": 4272,
      "ë¬´ë¦": 4273,
      "ê¸īìĹ¬": 4274,
      "ë§ĪëĭĪ": 4275,
      "ë¹¨ê°Ħ": 4276,
      "ìķĦëĭĮëį°": 4277,
      "ìľłê¸°": 4278,
      "ëĶ´": 4279,
      "ìĺ¤ìĺ¤": 4280,
      "ëĭ¨ìľĦ": 4281,
      "ìĿ¼ìĤ°": 4282,
      "ìłĦëĤł": 4283,
      "ë°ķë¬¼": 4284,
      "ë¯¿ìĿĮ": 4285,
      "ê°ľíĺģ": 4286,
      "ì£¼ìľĦ": 4287,
      "ì°įê³ł": 4288,
      "íĬ¸ëłĮ": 4289,
      "ìģ¨": 4290,
      "ë¡ľë§Į": 4291,
      "ë³´ë¦¬": 4292,
      "ìŀ¬ìĥĿ": 4293,
      "ìĹŃëĮĢ": 4294,
      "ëª¨ë¥´ê²ł": 4295,
      "ìĿ´ëĵł": 4296,
      "ìŀĲëĬĶ": 4297,
      "ìķ¼ì§Ģ": 4298,
      "íĤ¤ì¦Ī": 4299,
      "ë°ķìĤ¬": 4300,
      "ìĨĮë°©": 4301,
      "ê·¸ëłĩì§Ģ": 4302,
      "íķľì°¸": 4303,
      "ëĤĺê°ĢëĬĶ": 4304,
      "íĨłì§Ģ": 4305,
      "ëį°ìĿ¼ë¦¬": 4306,
      "ìĿ¸ê³µ": 4307,
      "ë¶ĢëĮĢ": 4308,
      "ìĥĲ": 4309,
      "ìķĦìļ°": 4310,
      "ê¹Ģìłķ": 4311,
      "íĶĮëŀ«": 4312,
      "ë¯¸ì¹ľ": 4313,
      "ìĨĮëħĦ": 4314,
      "ìĻĢëĬĶ": 4315,
      "ìĭ¤ì²ľ": 4316,
      "ìłĢë²Ī": 4317,
      "íĻĶìĿ´": 4318,
      "ìĦ¸ê¸Ī": 4319,
      "ìļ©ìĿ¸": 4320,
      "ë¬¸ìŀ¥": 4321,
      "ì±Ķ": 4322,
      "ìĪĺëĬ¥": 4323,
      "ì£¼ëĭĪ": 4324,
      "ìłľìķ½": 4325,
      "ar": 4326,
      "ë§¤ëıĦ": 4327,
      "ì¹ľíĻĺê²½": 4328,
      "ìĹĲê²ĮëıĦ": 4329,
      "ëł¤ëĬĶ": 4330,
      "ìĪ«ìŀĲ": 4331,
      "ëłĪê¸°": 4332,
      "ë¶ĢìĹ¬": 4333,
      "ëĤĺìĻĶëĭ¤": 4334,
      "ì´ĪëĮĢ": 4335,
      "ëłĮì§Ģ": 4336,
      "ìĦľíĬ¸": 4337,
      "ìĭłìĨį": 4338,
      "ìķĦíĮĮ": 4339,
      "íĮĲì´ī": 4340,
      "ìłķëĭ¹": 4341,
      "ê±°ì§Ģ": 4342,
      "ìĻĦìłĦíŀĪ": 4343,
      "ê¶Įë¦¬": 4344,
      "ëĭµëĭµ": 4345,
      "ìķĦëĿ¼": 4346,
      "íĬ¸ë¡ľ": 4347,
      "ë¶ĢëĵľëŁ¬": 4348,
      "ìĪĻë°ķ": 4349,
      "ëĪĮëŁ¬": 4350,
      "íĺĳìķ½": 4351,
      "ìħ¨ìĸ´": 4352,
      "ìĨĮë¬¸": 4353,
      "ëĤ´ìĹŃ": 4354,
      "ìĬ¹ìĿ¸": 4355,
      "íĤ¤ìļ°": 4356,
      "ìķĮìķĺ": 4357,
      "ìĬ¤íĶĦ": 4358,
      "ì»¨ìĦ¤íĮħ": 4359,
      "ë¿Įë¦¬": 4360,
      "ìłĦíĪ¬": 4361,
      "ê²Ģì¦Ŀ": 4362,
      "ìĭłíķľ": 4363,
      "ëħ¸íķĺìļ°": 4364,
      "íķĺëĿ¼ê³ł": 4365,
      "ë³¶ìĿĮ": 4366,
      "ìĿ¼ê¸°": 4367,
      "íķľíĻĶ": 4368,
      "ìłľìŀ¬": 4369,
      "ìķĬëıĦë¡Ŀ": 4370,
      "ìŀĪìľ¼ìĭł": 4371,
      "ë¹Ħë¡¯íķ´": 4372,
      "ìłģëĭ¹íķľ": 4373,
      "ìĸ´ë¦¬": 4374,
      "ëĿ¼ìĿ´íĶĦ": 4375,
      "ë§¤ëħĦ": 4376,
      "ë²Ħë¦¬ê³ł": 4377,
      "ìĭ¤ë§¤ë¬¼": 4378,
      "ê·¸ë§Įíģ¼": 4379,
      "ë¯¸ë§Į": 4380,
      "ìĹĨìľ¼ë©´": 4381,
      "ìħ§": 4382,
      "ë°©ìĸ´": 4383,
      "ëĭ¿": 4384,
      "ëĪĪê¸¸": 4385,
      "ëĵ¤ìĸ´ê°Ħ": 4386,
      "ëŃī": 4387,
      "íĬľë¸Į": 4388,
      "ëª»íķł": 4389,
      "ê³¼ìŀ¥": 4390,
      "ìĹĲìĦľë§Į": 4391,
      "ì²´ëł¥": 4392,
      "ìŀ¥ìĭĿ": 4393,
      "êµ¬ê°Ħ": 4394,
      "ê°ĢìĿ´ëĵľ": 4395,
      "ëħĦëĮĢ": 4396,
      "ëĦĺëĬĶ": 4397,
      "íĺ¸ì£¼": 4398,
      "ì¹ĺê¸°": 4399,
      "ë¯¼ì¡±": 4400,
      "ìĨĮê¸Ī": 4401,
      "ìĿ¼ìĭľ": 4402,
      "ì²ľì²ľ": 4403,
      "ìĽĶìļĶìĿ¼": 4404,
      "íķŃëª©": 4405,
      "31": 4406,
      "íĺ¸ìĦł": 4407,
      "ëĲĺëıĦë¡Ŀ": 4408,
      "ë¶Īê³¼": 4409,
      "ê²½ì£¼": 4410,
      "íķĻê¸°": 4411,
      "ê°Ģë¦¬": 4412,
      "íĢĺ": 4413,
      "ë¹Ħì¦Ī": 4414,
      "ë°°ì¶ľ": 4415,
      "ëĭ¨ìłĲ": 4416,
      "ì¢ĭìķĦìĦľ": 4417,
      "ì¸¡ìłķ": 4418,
      "ìĿ´ìĹĪëĬĶëį°": 4419,
      "ë£¨ìħĺ": 4420,
      "ìłķìĦ±": 4421,
      "ëį°ëł¤": 4422,
      "ê·¸ë¦¬ìĬ¤": 4423,
      "íĨłë¦¬": 4424,
      "ì½ĺìĦľíĬ¸": 4425,
      "íİ¸ì§ĳ": 4426,
      "ìļľ": 4427,
      "ì¸¡ë©´": 4428,
      "ìłģìĿĳ": 4429,
      "íĶ¼ê³¤": 4430,
      "ê²ĮìĿ´": 4431,
      "ìºłíĶĦ": 4432,
      "ëıĦìĸ´": 4433,
      "ë¶Ģìŀ¥": 4434,
      "ë§ĮëĤľ": 4435,
      "ìĦľìĦľ": 4436,
      "ë°ĽìķĦìĦľ": 4437,
      "ìķĪëĲĺëĬĶ": 4438,
      "ìĿ´ìĹĪëįĺ": 4439,
      "ëŁ¬ëĵľ": 4440,
      "ë°Ľê²Į": 4441,
      "êº¼ëĤ´": 4442,
      "ëĭ¤ìĿĮëĤł": 4443,
      "ëĲĺìĸ´ìĦľ": 4444,
      "ëĲ¬": 4445,
      "ìĭ¤íĸī": 4446,
      "ìŀħíķĻ": 4447,
      "ìĦ¸íı¬": 4448,
      "ìłľë°ľ": 4449,
      "ëį§ë¶ĻìĺĢëĭ¤": 4450,
      "ìĭ¸ìĽĢ": 4451,
      "ì¢ħë£Į": 4452,
      "êµĲìŀ¬": 4453,
      "íĥĢìļ´": 4454,
      "ìļĶê±°": 4455,
      "ìĨĲê°ĢëĿ½": 4456,
      "ì¶©ëĤ¨": 4457,
      "ë©°ì¹ł": 4458,
      "ë¬¸íķĻ": 4459,
      "íĮĶìķĦ": 4460,
      "ê³ĦëŀĢ": 4461,
      "ëª¨ë¥´ê³ł": 4462,
      "ì¢ĭëĭ¤ê³ł": 4463,
      "en": 4464,
      "íĺķìĤ¬": 4465,
      "ì§ĳìķĪ": 4466,
      "ìłĢê±°": 4467,
      "ê²ī": 4468,
      "ë£°": 4469,
      "ê°ľíĨµ": 4470,
      "ëĵľë¦¬ëĬĶ": 4471,
      "ìĻĦíĻĶ": 4472,
      "ê¸°ìĹ¬": 4473,
      "ìļĶê±´": 4474,
      "ìĺ¨ëĭ¤": 4475,
      "íŀĪê³ł": 4476,
      "ë¹ĦíĥĢë¯¼": 4477,
      "ìļĶìĿ¸": 4478,
      "ê°Ħëĭ¨íķľ": 4479,
      "ëĳ¥ìĿ´": 4480,
      "ëģĮê³ł": 4481,
      "ë¬´ë¦İ": 4482,
      "êµŃë¦½": 4483,
      "ìłĢìŀĳ": 4484,
      "ì²©": 4485,
      "ì³ĲìĦľ": 4486,
      "ëħ¸íĬ¸ë¶ģ": 4487,
      "ë¯Ħ": 4488,
      "ì¿Ħ": 4489,
      "íĮĢìŀ¥": 4490,
      "ê°Ģë©°": 4491,
      "íļĮëĭ´": 4492,
      "ê·ĢìĹ¬ìļ´": 4493,
      "ë°Ģë¦¬": 4494,
      "ê·¸ëĤĺë§Ī": 4495,
      "ìĥĿë¦¬": 4496,
      "íķĺìħĶëıĦ": 4497,
      "ìĸĳëıĦ": 4498,
      "ì¹ĺìķĦ": 4499,
      "ìĦ¸ê¸°": 4500,
      "ê³¼ëıĦ": 4501,
      "is": 4502,
      "ë§ĪìĬ¤íĦ°": 4503,
      "íĶĮëŀĺ": 4504,
      "ëĵ¤ëł¤": 4505,
      "ë°ľìĸ¸": 4506,
      "íĸĦ": 4507,
      "ë£¬": 4508,
      "ìĺ¬ëł¸": 4509,
      "ì°½ê³ł": 4510,
      "ë¶ĻìĹ¬": 4511,
      "ëĮĢë¬¸": 4512,
      "ì¤ĺìĦľ": 4513,
      "ìĭłë¶Ģ": 4514,
      "íĹĪê°Ģ": 4515,
      "ìĬ¤íĦ°ëĶĶ": 4516,
      "ë§ŀìĿĢ": 4517,
      "ë°ĿíĺĢ": 4518,
      "ì¤ĳë³µ": 4519,
      "íĿĺëŁ¬": 4520,
      "ì¡ĮìĬµëĭĪëĭ¤": 4521,
      "íķ´ìĨĮ": 4522,
      "ë§Īë£¨": 4523,
      "íİĺìĿ¸": 4524,
      "íĶĦë¡ľëª¨ìħĺ": 4525,
      "ìķ¼ê°Ħ": 4526,
      "ìĿ´íĺ¼": 4527,
      "íĪ¬ìŀħ": 4528,
      "ìĿĺíķľ": 4529,
      "ì¡Įìĸ´": 4530,
      "ì°©ë¶Ī": 4531,
      "ì¶ľíĮĲ": 4532,
      "ëį±": 4533,
      "ê´Ģê°Ŀ": 4534,
      "ì²´ìłľ": 4535,
      "ë°ľê¸ī": 4536,
      "ìĹĦì²ŃëĤľ": 4537,
      "ëł·": 4538,
      "ëĤ´ëĨĵ": 4539,
      "ìĦ±ëĤ¨": 4540,
      "íķĺëł¤ëĬĶ": 4541,
      "ê¼´": 4542,
      "ì²ľì²ľíŀĪ": 4543,
      "ìķĦë¬´ê²ĥ": 4544,
      "íĮĮê²©": 4545,
      "ìļ´ìļ©": 4546,
      "íĻĶìłľ": 4547,
      "ë§¤ëĭĪìłĢ": 4548,
      "ëıĻë°ĺ": 4549,
      "ìĺĽëĤł": 4550,
      "íħĢ": 4551,
      "íĻįì½©": 4552,
      "ëĤĺìģĺ": 4553,
      "ëĦ¤íĬ¸ìĽĮíģ¬": 4554,
      "íĹĪìľĦ": 4555,
      "ë³µìŀ¡": 4556,
      "ìĪĺì§Ģ": 4557,
      "êµ³ìĿ´": 4558,
      "ìĿ½ê³ł": 4559,
      "ì£½ìĿĮ": 4560,
      "ìłĦë¶ģ": 4561,
      "ê²¼ëĭ¤": 4562,
      "ìľĻ": 4563,
      "ê³łë¦¬": 4564,
      "ëĵ¤ìĸ´ê°ĢëĬĶ": 4565,
      "ë§Īë²ķ": 4566,
      "ëģĦëŁ¬": 4567,
      "íĴįë¶Ģ": 4568,
      "ë¶ĪëŁī": 4569,
      "ëĦĪìĬ¤": 4570,
      "ìĿĺìŀ¥": 4571,
      "íģ´ëŀĺìĬ¤": 4572,
      "ê¸´ê¸ī": 4573,
      "ê³½": 4574,
      "ìķĪìĤ°": 4575,
      "ìĥģìŀĲ": 4576,
      "ìĿĺíĺ¹": 4577,
      "ëĵľëŁ½": 4578,
      "ë¥Ļ": 4579,
      "ì§ľì¦Ŀ": 4580,
      "ê°Ģë©´ìĦľ": 4581,
      "ëıķ": 4582,
      "ìĸĩ": 4583,
      "ìļ´íĸī": 4584,
      "ìŀĪëįĶëĿ¼êµ¬": 4585,
      "ìľłë¡ľ": 4586,
      "ìĹ´ê³ł": 4587,
      "ë¦ħëĭĪëĭ¤": 4588,
      "ëĮģ": 4589,
      "ê²¨ìļ°": 4590,
      "ìĦ¼íĬ¸": 4591,
      "ë³µêµ¬": 4592,
      "ìĭ¤ë¬´": 4593,
      "ë°ĶíĢ´": 4594,
      "ë¹Ħìĥģ": 4595,
      "áħ": 4596,
      "ëĵľë¦°": 4597,
      "ë¹Ħì¹ĺ": 4598,
      "ìĬ¤íĭ°ì»¤": 4599,
      "ë²ĪìĹŃ": 4600,
      "ë¶Ļìĸ´": 4601,
      "ìĨĮì¤ĳíķľ": 4602,
      "íĻĶìĿ´íĮħ": 4603,
      "ë§ĮëĤ¨": 4604,
      "íķĺëįĶëĿ¼ëıĦ": 4605,
      "ìĬ¤ë§ĪìĬ¤": 4606,
      "ê¸°ê°Ģ": 4607,
      "ê°Īëĵ±": 4608,
      "ëĤĺìĺ¨ëĭ¤": 4609,
      "ìĦŃì·¨": 4610,
      "ëĦĪíĿ¬": 4611,
      "ìį°": 4612,
      "ìľ¡ìĦ±": 4613,
      "ë³´ìĭľëĬĶ": 4614,
      "ìĨĮìŀ¥": 4615,
      "íĳ¹": 4616,
      "ìļķìĭ¤": 4617,
      "ë©Ķê°Ģ": 4618,
      "ìĤ¬ìľł": 4619,
      "ìŀĪìĹĪê³ł": 4620,
      "ë¯¸ëĤĺ": 4621,
      "ì¸Ħ": 4622,
      "ëĲĺëĭĪ": 4623,
      "ë§İìĬµëĭĪëĭ¤": 4624,
      "ìĪľìĪĺ": 4625,
      "ë©Ģíĭ°": 4626,
      "ì£¼ê±°": 4627,
      "ìľłìĿĺ": 4628,
      "ë³´ìķĺëĭ¤": 4629,
      "ìľłíĺķ": 4630,
      "ëĤ©ëĭĪëĭ¤": 4631,
      "ìĵ°ëłĪê¸°": 4632,
      "ìĥģëĮĢë°©": 4633,
      "ë¬¼ë¦¬": 4634,
      "ê³łìĪĺ": 4635,
      "ìĬ¤íĭ±": 4636,
      "ìĨľ": 4637,
      "ì±ĦíĥĿ": 4638,
      "íĸ¥íķ´": 4639,
      "ëį°ë¦¬ê³ł": 4640,
      "ì§ĳìĸ´": 4641,
      "ëĭ®": 4642,
      "ëĦ¤ìĿ¼": 4643,
      "ìĥģìĿĺ": 4644,
      "ìĺĪë»Ĳ": 4645,
      "ì½ľëĿ¼": 4646,
      "ì½ĶëĶĶ": 4647,
      "ì¹ĺê³¼": 4648,
      "ê·¸ëŀĺíĶ½": 4649,
      "ìĿ´ë¡ł": 4650,
      "íıŃëł¥": 4651,
      "ìĪľìĦľ": 4652,
      "ëĤĺëĤĺ": 4653,
      "ì¶ĶìĦĿ": 4654,
      "ëģĿëĤĺê³ł": 4655,
      "ìķĬì§Ģë§Į": 4656,
      "ìĿ´ê¸´": 4657,
      "ìĦłìĸ¸": 4658,
      "íĥĢìĿ¸": 4659,
      "ëĨĢëŁ¬": 4660,
      "íħĮë§Ī": 4661,
      "íķľëıĦ": 4662,
      "ìĿ´ëĭĪê¹Į": 4663,
      "ì§Ģìĥģ": 4664,
      "ëļ±": 4665,
      "íĮ¨íĦ´": 4666,
      "ë¶ĵ": 4667,
      "ëĶ¸ê¸°": 4668,
      "ìĺ¤ìĦ¸ìļĶ": 4669,
      "ê¹ľì§Ŀ": 4670,
      "ê°Ĳê°ģ": 4671,
      "íı¬íķŃ": 4672,
      "íģ¬ë¦¬ìĬ¤ë§ĪìĬ¤": 4673,
      "ì¼ĢìĿ´íģ¬": 4674,
      "ëĭ¤ë¥´ê²Į": 4675,
      "ê°ĢìŀĲ": 4676,
      "ìľĦë©Ķ": 4677,
      "íķĺëĭ¨": 4678,
      "ìĦ¸ìĽĮ": 4679,
      "ìłĢë¦¬": 4680,
      "ë°ľíĸī": 4681,
      "ìıŁìķĦ": 4682,
      "ìĸ´íķĻ": 4683,
      "ìĥĪë¡Ńê²Į": 4684,
      "íĸĪìĹĪëĬĶëį°": 4685,
      "ê·¸ëŁ¬ëĭĪê¹Į": 4686,
      "ëĤ¨ëħĢ": 4687,
      "ìĿ´ìĹĪìĸ´": 4688,
      "íĮį": 4689,
      "íĶĶ": 4690,
      "ë³´ê³łìĦľ": 4691,
      "ëįĺê°Ģ": 4692,
      "ìķĮëł¤ì¡Įëĭ¤": 4693,
      "ëį°ë·Ķ": 4694,
      "ìĹ´ìłķ": 4695,
      "ë±ħíģ¬": 4696,
      "ìĸ´ì°¨": 4697,
      "ìļ©ëıĦ": 4698,
      "ìİĦ": 4699,
      "ìĿ¼ëĮĢ": 4700,
      "ê°ģìŀĲ": 4701,
      "ì§ĢëĬ¥": 4702,
      "ìłģìĿĢ": 4703,
      "ì½ķ": 4704,
      "ìķĪìĸĳ": 4705,
      "ìĬ¤íİĻ": 4706,
      "íħĶëłĪ": 4707,
      "ìĦ¤ë¹Ħ": 4708,
      "ëıĮíĮĮ": 4709,
      "ìķĦíĶĪ": 4710,
      "ê¶ģê¸Īíķľ": 4711,
      "ë§ĪìłĢ": 4712,
      "ë¯¸ìħĺ": 4713,
      "ģëĭĪëĭ¤": 4714,
      "ìĻ¸êµĲ": 4715,
      "ìĭłìŀħ": 4716,
      "ìĹ¿": 4717,
      "íķĺìĪĺ": 4718,
      "ê±´ëĦĪ": 4719,
      "íİ¸ì§Ģ": 4720,
      "íĳ¸ëĵľ": 4721,
      "íĻķë¥ł": 4722,
      "ìķĬìķĦëıĦ": 4723,
      "íĮĮìļ°": 4724,
      "ìĻ¸ê³¼": 4725,
      "ìķ¼ì±Ħ": 4726,
      "ê±°íĴĪ": 4727,
      "ëĭĪíĬ¸": 4728,
      "ëŀ¬": 4729,
      "ì§ĳíĸī": 4730,
      "ìŀħìĭľ": 4731,
      "ìĨĶë£¨ìħĺ": 4732,
      "ì°¸ì¡°": 4733,
      "ëłīìĬ¤": 4734,
      "ë°ľë§¤": 4735,
      "ìĮĪ": 4736,
      "ìĦ¹": 4737,
      "ì°½ì¶ľ": 4738,
      "ëĮĢíķĺìĹ¬": 4739,
      "ìĭłì¤ĳ": 4740,
      "ì£¼ìĤ¬": 4741,
      "ê¸¸ê²Į": 4742,
      "íĮ½": 4743,
      "ê³łêµ¬": 4744,
      "ìľłì¹ĺìĽĲ": 4745,
      "ì¶ľêµ¬": 4746,
      "ì§Ħìĭ¤": 4747,
      "ë³´ëĤ´ê³ł": 4748,
      "ìĿ´ëŁ¬ìĬ¤": 4749,
      "ëıħìĦľ": 4750,
      "ìĿ´ëĦĪ": 4751,
      "ë¹Ħë¡¯íķľ": 4752,
      "ê»į": 4753,
      "ë°ĶìĿ´ëŁ¬ìĬ¤": 4754,
      "ë¶Ħëĭ¹": 4755,
      "íĥĪíĩ´": 4756,
      "ìłĢì¶ķ": 4757,
      "ìĤ¬ë£Į": 4758,
      "ê·¹ìŀ¥": 4759,
      "ë¶ĢëŁ½": 4760,
      "ê°Ģëł¤": 4761,
      "ì§ģêµ¬": 4762,
      "êµ¬ë©į": 4763,
      "íķ´ìł¸": 4764,
      "ì²ĺë²Į": 4765,
      "ì¢ħìĿ¼": 4766,
      "íı¬ë¥´": 4767,
      "ëĲĺìĸ´ìķ¼": 4768,
      "ìĪĺë¹Ħ": 4769,
      "ê´ĢìłĪ": 4770,
      "ëŁ¬ë¸Į": 4771,
      "ëĴĢ": 4772,
      "ì»¤ë®¤ëĭĪíĭ°": 4773,
      "ìĨĮìļĶ": 4774,
      "ê¸°ìĬ¤": 4775,
      "ìĤ¬ìĸĳ": 4776,
      "ì¹ĺë©´": 4777,
      "ê²°íķ©": 4778,
      "ë¶ĢëĵľëŁ½": 4779,
      "ìĸ´ë§Ī": 4780,
      "ìŀ¼": 4781,
      "ìĪĺìĤ°": 4782,
      "ë²ĦìĦ¯": 4783,
      "ê²Ģìłķ": 4784,
      "ëĿ¼ë¦¬": 4785,
      "ê·¸ëłĩëĭ¤ê³ł": 4786,
      "ë§ĪëĿ¼": 4787,
      "íķľë§ĪëĶĶ": 4788,
      "ìłĦìķ¡": 4789,
      "ê°ĢëĬĶëį°": 4790,
      "ì¢ĭëĦ¤": 4791,
      "ë§ĪëĬĺ": 4792,
      "ìłĢëł´íķĺê²Į": 4793,
      "ìĭľìĽĲíķľ": 4794,
      "ìŀ¬ìĿ¸": 4795,
      "ìĥīê¹Ķ": 4796,
      "íĭ°ë¹Ħ": 4797,
      "ë°Ł": 4798,
      "êµ°ëį°": 4799,
      "ëĳĲëł¤": 4800,
      "ê³łìŀ¥": 4801,
      "ìĭľíģ¬": 4802,
      "íĬ¹ìĿ´": 4803,
      "ì¹Ńì°¬": 4804,
      "ëĤĺìĦł": 4805,
      "ì¹´ìĿ´": 4806,
      "ìĿ´ëª¨": 4807,
      "ìľĦë©ĶíĶĦ": 4808,
      "íĻľìķ½": 4809,
      "íĤ·": 4810,
      "ì£¼ê´Ģ": 4811,
      "ëĮĢìļ°": 4812,
      "ìĸ´ì°¨íĶ¼": 4813,
      "ìľ¼ìĭľë©´": 4814,
      "ê½Ĥ": 4815,
      "ìĺ¬ë¦¬ëĬĶ": 4816,
      "ìĹ°íľ´": 4817,
      "ì§ĳëĭ¨": 4818,
      "ìłĦë©´": 4819,
      "íķĺëł¤ë©´": 4820,
      "ê°ĦíĮĲ": 4821,
      "íļĮê³Ħ": 4822,
      "ë§Īì¹¨": 4823,
      "ìĬ¤ì¹´ìĿ´": 4824,
      "íķľê³Ħ": 4825,
      "ì²Ńìłķ": 4826,
      "ë´¤ìĬµëĭĪëĭ¤": 4827,
      "ê´ĳìŀ¥": 4828,
      "ìĪĺë§İìĿĢ": 4829,
      "ëĤľë°©": 4830,
      "ìŀĳëıĻ": 4831,
      "ë¡ľë§Ī": 4832,
      "ìļĶìłľ": 4833,
      "ê·¸ëĮĢ": 4834,
      "ìľ¡ìķĦ": 4835,
      "ìĺ¤ë²Ħ": 4836,
      "ëĶĶìĬ¤íģ¬": 4837,
      "ì§ĢìĹ°": 4838,
      "íĦ°ì¹ĺ": 4839,
      "íıŃë°ľ": 4840,
      "ëıĻìĽĲ": 4841,
      "ë³´ìĬ¤": 4842,
      "ê³łê³ł": 4843,
      "ê°Ģë²¼": 4844,
      "ê¸°ìļ¸": 4845,
      "íķĺìĸĢ": 4846,
      "ê·¸ê³³": 4847,
      "ìĭ¬íķľ": 4848,
      "êµĲê³¼": 4849,
      "ìĦ¸ë¶Ģ": 4850,
      "ë¹Ķ": 4851,
      "ìĹ°ë§Ĳ": 4852,
      "ë¯¸ìĤ¬": 4853,
      "êµ¬ë¦Ħ": 4854,
      "ëĭ¹êµŃ": 4855,
      "íļŁ": 4856,
      "ë³´ìķĺ": 4857,
      "ìĬ¤íģ¬ë¦¼": 4858,
      "ê·¹ë³µ": 4859,
      "ìĥĲëŁ¬ëĵľ": 4860,
      "ìķĪê²½": 4861,
      "ìĿ¸ìŀ¬": 4862,
      "ìĽĲëĭ¨": 4863,
      "ìĹĳìĬ¤": 4864,
      "íİł": 4865,
      "íĹĽ": 4866,
      "íĥĦìĥĿ": 4867,
      "ìĹŃëŁī": 4868,
      "íĬ¹íĹĪ": 4869,
      "ì¢ħê°Ģ": 4870,
      "íķľë°©": 4871,
      "íķ´íĶ¼": 4872,
      "ìĿ´ëĭ¬": 4873,
      "ëıĻíĻĶ": 4874,
      "ìĪľíĻĺ": 4875,
      "ìĦłì°©": 4876,
      "íį¼ìĬ¤": 4877,
      "ìĿ´ë¶Ī": 4878,
      "ëĵ¤ìĸ´ê°ĢìĦľ": 4879,
      "ìĺ¬ë¦¬ê³ł": 4880,
      "ìĿ¸ìĩĦ": 4881,
      "ìĹĨìĹĪ": 4882,
      "ë²Ħëł¤": 4883,
      "ìĥ´": 4884,
      "ìĺĪê³ł": 4885,
      "ë¹ĦìķĦ": 4886,
      "ìĿ´ë¥¸": 4887,
      "ê³Ħëĭ¨": 4888,
      "ëĵľë¡ľ": 4889,
      "ëĤ¨ë¶ģ": 4890,
      "íĬ¸ëŁ¼": 4891,
      "ìĦ¸ë¬´": 4892,
      "êµŃë¬¼": 4893,
      "íĶĦëĿ¼ìĿ´": 4894,
      "ì£¼ìĸ¼": 4895,
      "ê°ĢìĦ±": 4896,
      "íĽĦìĽĲ": 4897,
      "íķ´ì§ĢëĬĶ": 4898,
      "ìļ°ìļ¸": 4899,
      "íĿ¡ìĪĺ": 4900,
      "ëĭ¤ìĦ¯": 4901,
      "ëĶĶìķĦ": 4902,
      "íģ¬ë£¨": 4903,
      "ê·łíĺķ": 4904,
      "ëª¨ë¥´ê²łëĦ¤": 4905,
      "íĭ°ì§Ģ": 4906,
      "ìĺ¤íĶ¼ìĬ¤íħĶ": 4907,
      "ëıĦë§¤": 4908,
      "ì§Ħì£¼": 4909,
      "ë¥´ì§Ģ": 4910,
      "íĳ¼": 4911,
      "íĮŁ": 4912,
      "ëª¨ìĹ¬": 4913,
      "ìŀĲê°Ģ": 4914,
      "ìĭľì¼°": 4915,
      "ì¦Ŀìĭľ": 4916,
      "ìĬ¤ìľĦ": 4917,
      "ìĸ¼ë¥¸": 4918,
      "ìĥģìĹħ": 4919,
      "ì°½ì¡°": 4920,
      "ê³¨ëª©": 4921,
      "ìĸ´ì¨": 4922,
      "ê½ī": 4923,
      "íķľìª½": 4924,
      "íĳľì¤Ģ": 4925,
      "ìķĦë§ĪëıĦ": 4926,
      "ìŀĲìĭĿ": 4927,
      "ë§Ĳíķľëĭ¤": 4928,
      "ì±Ħë¬´": 4929,
      "ìĤ¬ìĿ´ëĵľ": 4930,
      "ìľ¼ìĭ¤": 4931,
      "íĶĮëĿ¼ìĽĮ": 4932,
      "íŀĲë§ģ": 4933,
      "íĶĮëŀ«íı¼": 4934,
      "ì§Ħìŀħ": 4935,
      "íķľë³µ": 4936,
      "ì§Ģë©´ìĦľ": 4937,
      "ëĳĲìĤ°": 4938,
      "ëħ¸ì¡°": 4939,
      "ë¸ĮëłĪìĿ´": 4940,
      "ê°ĢìĤ¬": 4941,
      "ê¹Ģìĺģ": 4942,
      "ìĹĲê²Ĳ": 4943,
      "ìĳ¥": 4944,
      "ëĭ¬ì½¤": 4945,
      "ìĦ¸ìĹ¬": 4946,
      "ë§ĮëĤł": 4947,
      "ëĥħ": 4948,
      "íķĺìĭľëĤĺ": 4949,
      "ì¢ħêµĲ": 4950,
      "ë¨¹ìĹĪ": 4951,
      "íĦ°ë¯¸": 4952,
      "ê¸°íĶĦíĬ¸": 4953,
      "ê·¸ëłĩëĭ¤ë©´": 4954,
      "ìŀĺíķĺëĬĶ": 4955,
      "ëĭ´ë³´": 4956,
      "ê°ĸì¶Ķ": 4957,
      "êµ¬ìĦĿ": 4958,
      "ë¶Ħë¥ĺ": 4959,
      "íļĮíĻĶ": 4960,
      "ìĺ¤ìĭł": 4961,
      "íİľìħĺ": 4962,
      "ì´īì´ī": 4963,
      "ìĭŃìĭľìĺ¤": 4964,
      "ëĦĺê²Į": 4965,
      "ìĺĪìģĺê²Į": 4966,
      "ìłģíķ©": 4967,
      "ëĮĢìĦł": 4968,
      "ìĿ´ê±¸": 4969,
      "le": 4970,
      "ëĭ¹ìĤ¬": 4971,
      "ëĵŃëĭĪëĭ¤": 4972,
      "ìĪĺìłľ": 4973,
      "ëĦ¬": 4974,
      "ìŀ¥íķĻ": 4975,
      "ëĤĺëĭĪ": 4976,
      "ë¡ľìį¨": 4977,
      "no": 4978,
      "you": 4979,
      "ì²łëıĦ": 4980,
      "ëĬ¬": 4981,
      "ìĭ¸ìĿ´íģ´": 4982,
      "ëĤ´ì§Ģ": 4983,
      "ëªħëł¹": 4984,
      "ëĭµê¸Ģ": 4985,
      "ìĿµìĪĻ": 4986,
      "ë¶Ģê°Ģ": 4987,
      "ëıĦìĭľëĿ½": 4988,
      "ìĬ¤ì¿¨": 4989,
      "ìĪĺìĭľ": 4990,
      "ìºĲëĤĺëĭ¤": 4991,
      "ìĭľíĶ¼": 4992,
      "ë¥Ń": 4993,
      "ìķĦìĿ´ìĬ¤íģ¬ë¦¼": 4994,
      "ëıĻìŀĳ": 4995,
      "ìĸ´ëĸ¨": 4996,
      "ëĤĺìķĦ": 4997,
      "íĨłë§Ī": 4998,
      "ê°Ĳìĥģ": 4999,
      "ìĸ¸ìłł": 5000,
      "ë¯¿ìĿĦ": 5001,
      "ìĥĿë¬¼": 5002,
      "ëĮĢëŀµ": 5003,
      "ìķĪìª½": 5004,
      "ìĪĺëĤ©": 5005,
      "ì·¨ë¯¸": 5006,
      "ë§İìĿĢëį°": 5007,
      "ìĻĵ": 5008,
      "ìĿ´ìĦ±": 5009,
      "ì¶©ë¶ģ": 5010,
      "ìĸĳìĦ±": 5011,
      "ìĬ¤íģ¬ë¦°": 5012,
      "êµĲë¥ĺ": 5013,
      "ìĪĺìľł": 5014,
      "ëľ¨ê±°ìļ´": 5015,
      "íĶĮëłĪ": 5016,
      "íģ´ëĿ¼": 5017,
      "ëĳĳ": 5018,
      "ì±ĦíĮħ": 5019,
      "ìĭľê¸¸": 5020,
      "ì½ĶíĮħ": 5021,
      "ê¸°ìŀ¥": 5022,
      "ë°ķê·¼": 5023,
      "ì°¾ìĿĦ": 5024,
      "ì²´ìĿ¸": 5025,
      "ë¬´ëł¤": 5026,
      "ìķĦìĿ´ëĶĶìĸ´": 5027,
      "ë³µê·Ģ": 5028,
      "ëª¨ìľ¼": 5029,
      "ëĭ´ìĿĢ": 5030,
      "íĬ¸ëĿ¼": 5031,
      "ë´Ħë§ŀìĿ´": 5032,
      "íģ¬ë¦¬ìĬ¤": 5033,
      "ìµľìłģ": 5034,
      "ì¢ĭê²łëĭ¤": 5035,
      "ë°ĺê°ĳ": 5036,
      "ë¬´ìĦł": 5037,
      "ìłĦìĿ¼": 5038,
      "ë¹ĦìłĦ": 5039,
      "ìļķìĭ¬": 5040,
      "êµŃíĨł": 5041,
      "ë°ĶìľĦ": 5042,
      "ìĺ¤ìĹ¼": 5043,
      "íģ´ë¦¬": 5044,
      "ë¹ĮëĶ©": 5045,
      "ìĵ°ì§Ģ": 5046,
      "ë²łìĿ´ìĬ¤": 5047,
      "ê°Ģìĥģ": 5048,
      "íŀĪíŀĪ": 5049,
      "ì°Ķ": 5050,
      "ë©Ķìĭľì§Ģ": 5051,
      "íİ«": 5052,
      "ê³ģ": 5053,
      "ì´Īê³¼": 5054,
      "ë®¤ì§Ģì»¬": 5055,
      "ë§ĪìĿ´íģ¬": 5056,
      "ëĵ¤ìĸ´ê°Ī": 5057,
      "ëĭ¹íĻ©": 5058,
      "ë¶īìĿĢ": 5059,
      "ìŀĲìŀ¬": 5060,
      "ì¹ľìłķ": 5061,
      "ê¸°ìļ´": 5062,
      "íģ¬ë¡ľ": 5063,
      "íľ´ìĭĿ": 5064,
      "ë§Įëĵľ": 5065,
      "ëĤĺë¬¼": 5066,
      "ê¸°ì°¨": 5067,
      "ì§ĦíĿ¥": 5068,
      "ì¡°ë¦½": 5069,
      "ë§ĲëĿ¼": 5070,
      "ëª¨ë¥´ê²łì§Ģë§Į": 5071,
      "íĿ¥ë¯¸": 5072,
      "ë¹ĦìŀĲ": 5073,
      "ìĭłíĺ¼": 5074,
      "ìĺ¤ëŀ«": 5075,
      "ìĦ±ìĿĺ": 5076,
      "ëĤĺëĦ¤": 5077,
      "ê·¸ëĿ¼": 5078,
      "íļĮìłĦ": 5079,
      "ëĮĢê¸°ìĹħ": 5080,
      "ë³´ìĭł": 5081,
      "ì¶ľìłĦ": 5082,
      "ê°ĢëıĦ": 5083,
      "ì¶Ķìłķ": 5084,
      "ê·¸ë¶Ħ": 5085,
      "ê°ĢìĦ±ë¹Ħ": 5086,
      "ìĭłì°¨": 5087,
      "ì¤ĳíķĻêµĲ": 5088,
      "ìŀħìĿĢ": 5089,
      "íķĦíĦ°": 5090,
      "ìĨĮìĿĮ": 5091,
      "ìĹ°ìķł": 5092,
      "ë°ľëĭ¬": 5093,
      "ê´ľíŀĪ": 5094,
      "ì¢ĭê²łìĬµëĭĪëĭ¤": 5095,
      "íĺķìłľ": 5096,
      "ëĸ¨ìĸ´ì§Ħ": 5097,
      "íĻ©ê¸Ī": 5098,
      "ìĭłíĺ¸": 5099,
      "ìĤ¬ì£¼": 5100,
      "ë¸ĶëĿ¼": 5101,
      "íļ¡": 5102,
      "ëĵľëŀĺ": 5103,
      "ìĶ¹": 5104,
      "ìķĦë¬´íĬ¼": 5105,
      "íĥĢìĤ¬": 5106,
      "ë¹ļ": 5107,
      "ê¸°ëĭ¤ë¦¬ê³ł": 5108,
      "íĶ½ìĹħ": 5109,
      "ë¬¼ëŁī": 5110,
      "ëª¨ëį¸ë§ģ": 5111,
      "ëĵĿìłĲ": 5112,
      "ëĦīëĦī": 5113,
      "ìıł": 5114,
      "ê¸°ìķĦ": 5115,
      "ê¹ĶëģĶíķľ": 5116,
      "íĿĻ": 5117,
      "ìıĻ": 5118,
      "ë½ķ": 5119,
      "ì«Ħ": 5120,
      "ê°Ħíİ¸": 5121,
      "ë¹łì§Ħ": 5122,
      "ê¸ĢìŀĲ": 5123,
      "ëĨĢëĿ¼": 5124,
      "ì¹´ëĿ¼": 5125,
      "ìŀħìĽĲ": 5126,
      "ë¬¸ìŀ¬ìĿ¸": 5127,
      "ìĹ´ë¦¬ëĬĶ": 5128,
      "íĤ¤ìĬ¤": 5129,
      "ìĸ´íĶĮ": 5130,
      "ë§ĲìķĦ": 5131,
      "ëķľ": 5132,
      "ë°ĺíĴĪ": 5133,
      "ëĤĺë¹Ħ": 5134,
      "íĺĦíĻ©": 5135,
      "íĥĢëĬĶ": 5136,
      "íŀĺëĤ´": 5137,
      "íķ´ìĥģ": 5138,
      "ì±ħìĥģ": 5139,
      "ëĭ¤íĸīíŀĪ": 5140,
      "ìŀĪìľ¼ëĤĺ": 5141,
      "ìĭłì²´": 5142,
      "ë§Īì¹ĺê³ł": 5143,
      "ë¿Ĳë§Į": 5144,
      "ê·¸ëŁ¬ë©´ìĦľ": 5145,
      "ìĨĮìĦľ": 5146,
      "íĥľëıĦ": 5147,
      "ìĿ´ìĬĪ": 5148,
      "ë¦¬ëĿ¼": 5149,
      "ëĲĺìĹĪê³ł": 5150,
      "ìķĮìķĦìĦľ": 5151,
      "ìĥĿíĥľ": 5152,
      "ì§Īë³ĳ": 5153,
      "ëłĻ": 5154,
      "ìĺ®ê²¨": 5155,
      "ëĭ¹ë¶Ģ": 5156,
      "ëĮĢë§Į": 5157,
      "ë°Ķìģĺ": 5158,
      "êµ¬ìĨį": 5159,
      "ëĪĪì¹ĺ": 5160,
      "ìĬ¤íİĺìĿ¸": 5161,
      "ëĭĽ": 5162,
      "ê·¸ëŁ¬ê³ł": 5163,
      "ì£ĦìĨ¡íķ´": 5164,
      "ë²łë¥´": 5165,
      "ë²ķë¬´": 5166,
      "ìĿ´ëŁ´": 5167,
      "ìĿ¸ìĹ°": 5168,
      "ëĤĺìĺ¤ë©´": 5169,
      "íİĳ": 5170,
      "ê°Ķëĭ¤ê°Ģ": 5171,
      "ê°Ģë³įê²Į": 5172,
      "ê°ĲìķĪ": 5173,
      "íıīíĥĿ": 5174,
      "ë°ķê·¼íĺľ": 5175,
      "íķĺë°ĺê¸°": 5176,
      "ëĤĺìĺµëĭĪëĭ¤": 5177,
      "ìļĶìĥĪ": 5178,
      "ë¥ľ": 5179,
      "ì¢ĭìĿĢëį°": 5180,
      "ìķĬê¸°": 5181,
      "ìłķì²´": 5182,
      "ê³µê³ł": 5183,
      "ì¢ħë¡ľ": 5184,
      "ëª¨ë¥´ê²łìĸ´": 5185,
      "êµ¬ìĿ´": 5186,
      "ê¹Įíİĺ": 5187,
      "ëĤ¨ë¶Ģ": 5188,
      "ì§Ģê°ĳ": 5189,
      "ìļ°ë¦°": 5190,
      "ëĸ¨ìĸ´ìł¸": 5191,
      "ê³łë§ĪìĽĮ": 5192,
      "ìĿ¸íķĺ": 5193,
      "ìŁģìĿ´": 5194,
      "ìĸĳì£¼": 5195,
      "ìŀĦìĭľ": 5196,
      "ìļĶìłĦ": 5197,
      "ìĸĳíĮĮ": 5198,
      "ê°Ķìĸ´": 5199,
      "ì¹©": 5200,
      "ë§Īì£¼": 5201,
      "íĥĢìĽĮ": 5202,
      "ëĬ¦ìĿĢ": 5203,
      "íģ´ëŀĺìĭĿ": 5204,
      "ìĥ¤ìĽĮ": 5205,
      "ì±ĦìĽĮ": 5206,
      "íķ´ìļ´": 5207,
      "ìĪĺë©´": 5208,
      "ê±¸ì³Ĳ": 5209,
      "ë¯¸íĦ°": 5210,
      "ìŀĲëĿ¼": 5211,
      "ë°ĶëŀĢëĭ¤": 5212,
      "ë©ĺíĨł": 5213,
      "ëĭ¤ëħ": 5214,
      "íī": 5215,
      "íĽ¼": 5216,
      "ìķĪëı¼": 5217,
      "íĻĶíıĲ": 5218,
      "ê¹Ģíı¬": 5219,
      "ìĺ¬ëŀĲëĭ¤": 5220,
      "ìĽĶëĵľì»µ": 5221,
      "ë§ĮëĳĲ": 5222,
      "ìĿ´ì¤ĳ": 5223,
      "ëĵľëĦ¤": 5224,
      "ëħ¸ìĦł": 5225,
      "ìį¸": 5226,
      "ë³´ëĤ¸": 5227,
      "ê¹¨ëģĹíķľ": 5228,
      "ê°Ģëĭ¤": 5229,
      "ë°ĺì§Ŀ": 5230,
      "ì§¤": 5231,
      "ìĿ¼ê´Ħ": 5232,
      "ëĲłì§Ģ": 5233,
      "ë³´ëĤ¼": 5234,
      "ìĭ±ê¸Ģ": 5235,
      "ìĺ¤íķ´": 5236,
      "ëªħìĺĪ": 5237,
      "ìī½ê³ł": 5238,
      "ì°¾ê³ł": 5239,
      "ìľ¼ìĦ¸ìļĶ": 5240,
      "ëª¨íĦ°": 5241,
      "íĻĺìľ¨": 5242,
      "ìĬ¤íħĿ": 5243,
      "ë¨¹ìĸ´ëıĦ": 5244,
      "êµĲìĭ¤": 5245,
      "ë¸Ķë¦¬": 5246,
      "ëį©ìĿ´": 5247,
      "ìį©": 5248,
      "ë°Ķë³´": 5249,
      "ì¿łìħĺ": 5250,
      "ëľ¬": 5251,
      "ê°Ħìŀ¥": 5252,
      "ìĹĨìľ¼ëĭĪ": 5253,
      "ìĺĪì¸¡": 5254,
      "ë§Īëĭ¹": 5255,
      "íĦ°ë¯¸ëĦĲ": 5256,
      "ìĿ¸ê¶Į": 5257,
      "ë³´ëĦ¤": 5258,
      "ìŀħìĸ´": 5259,
      "ìŀ¬ê³ł": 5260,
      "ë¯¼ê°Ĳ": 5261,
      "ê¹Įì§ĢëıĦ": 5262,
      "ì²łê±°": 5263,
      "ëłĮíĬ¸ì¹´": 5264,
      "ì¢ĭê²łìĸ´": 5265,
      "ìĿ´ëĥĲ": 5266,
      "ìĭ¬ì§Ģìĸ´": 5267,
      "ìĽĮíĦ°": 5268,
      "ì¦Ļ": 5269,
      "ê°Ģê³µ": 5270,
      "êµ¬ìĽĮ": 5271,
      "ìķĮë°Ķëª¬": 5272,
      "íĮĲê²°": 5273,
      "íķĺê²łëĭ¤ëĬĶ": 5274,
      "ìķłìłķ": 5275,
      "íĺ¸ìĪĺ": 5276,
      "ë¡ľë´ĩ": 5277,
      "ëĮĢë³Ģ": 5278,
      "ìĨĮíĺķ": 5279,
      "ë¸ĮëĿ¼ìļ´": 5280,
      "ê°ĢëĿ¼": 5281,
      "ìķĦìļ¸ëŁ¬": 5282,
      "ìłķê¶Į": 5283,
      "íĶ¼ìķĦëħ¸": 5284,
      "ìĨĲìĥģ": 5285,
      "ìµ¸": 5286,
      "ìłĦê°ľ": 5287,
      "ë¦¬ìĭ¸ìĿ´íģ´": 5288,
      "íģ´ë¦°": 5289,
      "ëĵľë¦Ħ": 5290,
      "ìľ¼ë¡ľë§Į": 5291,
      "ìĿ´ìĦľ": 5292,
      "ìĿĺë¬¸": 5293,
      "ë¨¹ìĿ´": 5294,
      "ìŀħë§Ľ": 5295,
      "ë¡ľì¦Ī": 5296,
      "ìĭ¤íĺĦ": 5297,
      "ìĿĳëĭµ": 5298,
      "ìĸ´ì§Ħ": 5299,
      "ìĭĿíĥģ": 5300,
      "íĹ¬ìĬ¤": 5301,
      "ìĥĪëĪĦë¦¬": 5302,
      "ëĮĢëŁī": 5303,
      "íĢµ": 5304,
      "ë²ĦíĦ°": 5305,
      "ì½Ķì½Ķ": 5306,
      "ë°©ìļ¸": 5307,
      "íģ¬ê³ł": 5308,
      "ìĿ¼ì§Ģ": 5309,
      "ìĬµëĭĪëĭ¹": 5310,
      "íĽĮë¥Ń": 5311,
      "ìĿ¼ëŁ¬": 5312,
      "ìĬ¹ë¶Ģ": 5313,
      "ì§Ģë¶Ħ": 5314,
      "ë¬´ìĦŃ": 5315,
      "ìľłìĤ¬": 5316,
      "ìĸ¼ìĿĮ": 5317,
      "ëĬĲê¼": 5318,
      "íĸĪëĬĶì§Ģ": 5319,
      "ë°°ëł¤": 5320,
      "ìķĦëĤĺ": 5321,
      "íļĮìĥĿ": 5322,
      "ëĵ¤ìĸ´ìĺ¤": 5323,
      "ëª°ëĿ¼ìĦľ": 5324,
      "ìĪĺìĦĿ": 5325,
      "ìĪĺìļ©": 5326,
      "ì½ĶëĦĪ": 5327,
      "ë°Ķë¥´": 5328,
      "íİ¸ìŀħ": 5329,
      "íĪ¬ìĬ¤": 5330,
      "íķĺëĤĺíķĺëĤĺ": 5331,
      "ìŀħì°°": 5332,
      "ìĥģë°ĺê¸°": 5333,
      "ìĹĶíĦ°": 5334,
      "ê³¼ìŀĲ": 5335,
      "ì¹«": 5336,
      "ìĿ´ìŀ¬": 5337,
      "ëĭ¤ìĬ¤": 5338,
      "ìŀĬì§Ģ": 5339,
      "st": 5340,
      "ìļĶê°ĲìĤ¬": 5341,
      "ì´Īì½Ķ": 5342,
      "ì§Ģìļ°": 5343,
      "íĸ¥ê¸°": 5344,
      "ë³µìĤ¬": 5345,
      "íķľìĿĺìĽĲ": 5346,
      "ì»¨ìħī": 5347,
      "ê¹Įì§Ģë§Į": 5348,
      "ë°Ľìľ¼ìĭ¤": 5349,
      "ìĺģìĽĲ": 5350,
      "ìļ°íİ¸": 5351,
      "ëıĻë£Į": 5352,
      "ìĿ¸ìĬ¤íĥĢ": 5353,
      "ìŀ¡ëĬĶ": 5354,
      "íķĻê³¼": 5355,
      "íĬ¸ëŁ¼íĶĦ": 5356,
      "ë¶ĢìĦľ": 5357,
      "ë¶Ģì²ĺ": 5358,
      "ë¦¬ë©´": 5359,
      "ì«Į": 5360,
      "ëĬĲëĤĢ": 5361,
      "ìĬ¤íĥł": 5362,
      "ìĺĢê³ł": 5363,
      "ìĦłìĤ¬": 5364,
      "ë¨¹ìĸ´ìķ¼": 5365,
      "ìľĦìķĪ": 5366,
      "ê·¸ëłĩêµ°": 5367,
      "ìĹ¬ê¸°ìłĢê¸°": 5368,
      "íķĺìĭ¬": 5369,
      "ìĤ¬ìĭ¤ìĥģ": 5370,
      "ë²Ħê±°": 5371,
      "ë¶ĪìĿ´ìĿµ": 5372,
      "ëĭ¹íķľ": 5373,
      "íıĲê¸°": 5374,
      "ëĲĺëĬĶì§Ģ": 5375,
      "ëĮķ": 5376,
      "ìĭ¤ìŀ¥": 5377,
      "íķ©ëĭĪëĭ¹": 5378,
      "êµ¬ê¸Ģ": 5379,
      "ê·¸ëŁ¬ëĭĪ": 5380,
      "íĻĪëŁ°": 5381,
      "ì²ĺë°©": 5382,
      "ìĿ¼ìĿ¼": 5383,
      "ìĪľìłķ": 5384,
      "ì¶ľëł¥": 5385,
      "íĶ¼ìĸ¸": 5386,
      "ëĿ¼ìĿ´ë¸Į": 5387,
      "ê³Ħìłķ": 5388,
      "ì¤ĢìĪĺ": 5389,
      "íĨµìŀ¥": 5390,
      "íĺ¸ë°ķ": 5391,
      "íĺģëªħ": 5392,
      "ìĹ°ê°Ħ": 5393,
      "ë²Ĺìĸ´ëĤĺ": 5394,
      "ìĽĢì§ģìŀĦ": 5395,
      "ê³µìĹħ": 5396,
      "êµ¬íķĺê¸°": 5397,
      "ìĬ¤ëŁ°": 5398,
      "ë¬´ì²Ļ": 5399,
      "ë§¨ëĤł": 5400,
      "ìĸ´ìł¸": 5401,
      "ì½Ķìĸ´": 5402,
      "ë³´ê²łìĬµëĭĪëĭ¤": 5403,
      "ì£¼ìĹĪëĭ¤": 5404,
      "ìľ¼ìħ¨": 5405,
      "íķ´ì§Ģê³ł": 5406,
      "ê²½ìĥģ": 5407,
      "ìĺ¤ë¥ĺ": 5408,
      "ì¦Ĳê²¨": 5409,
      "ë§ŀê³ł": 5410,
      "ìŀĪìĸ´ëıĦ": 5411,
      "ìĶ½": 5412,
      "ê°Ģë§Į": 5413,
      "ìļ°ìĹ°": 5414,
      "ëıĦìŀ¥": 5415,
      "ëĵłëĭ¤": 5416,
      "ëĲĺìĹĪìĸ´": 5417,
      "ìłĪë°ĺ": 5418,
      "ëĵ±ìĤ°": 5419,
      "íĸĪê¸°": 5420,
      "ë³Ģìĭł": 5421,
      "ë³´ëł¤ê³ł": 5422,
      "ìļĶëĦµ": 5423,
      "ìŀĲìķĦ": 5424,
      "ë©Ķëª¨ë¦¬": 5425,
      "íĸĪêµ¬": 5426,
      "ìłģë°ľ": 5427,
      "ë¶Ģì§Ħ": 5428,
      "íĺĶ": 5429,
      "íĶĦë¦¬ì¹´": 5430,
      "ìŀ¬ë°°": 5431,
      "ê¸°ìĽĲ": 5432,
      "íĻľë°ľ": 5433,
      "ë§Ĳíķł": 5434,
      "ê³³ê³³": 5435,
      "ê»Ħ": 5436,
      "ìĭ¤ë§Ŀ": 5437,
      "íĻĶìĦ±": 5438,
      "ìŀ¡ìĿ´": 5439,
      "ìĸ´ì§Ģ": 5440,
      "ìĹ°ëł¹": 5441,
      "ëĵ¯íķ´": 5442,
      "ìĥĺíĶĮ": 5443,
      "ìĦ¸ì²Ļ": 5444,
      "ìĿĺíķĻ": 5445,
      "ìĦ¸ëł¥": 5446,
      "ìĿ´íĥĪë¦¬ìķĦ": 5447,
      "ìŀĪìĿĦì§Ģ": 5448,
      "ì¹ĺë§Ī": 5449,
      "ìķĦëĭĪìĹĲìļĶ": 5450,
      "ëıħíĬ¹": 5451,
      "ëĺĳê°ĻìĿĢ": 5452,
      "ìĹĨëĤĺ": 5453,
      "ë©´ìĹŃ": 5454,
      "ëĤĺê¸°": 5455,
      "ìĹ¬ëĵľë¦Ħ": 5456,
      "ìŀĪëĭ¤ê°Ģ": 5457,
      "ë§¤ìļ´": 5458,
      "ë°ľêµ´": 5459,
      "ì¶ĶìĦ¸": 5460,
      "ëĸ¨ìĸ´ì§ĢëĬĶ": 5461,
      "ëŁ°ìĬ¤": 5462,
      "ë¶Īë§Į": 5463,
      "ëĽ°ìĸ´ëĤľ": 5464,
      "ê¹Ģíķ´": 5465,
      "ìĿ´ìĬ¹": 5466,
      "ë°ĽìķĦìķ¼": 5467,
      "ìķĺê³ł": 5468,
      "ìĥģì§ķ": 5469,
      "íİĦ": 5470,
      "ìŀĲêµŃ": 5471,
      "íĴĭ": 5472,
      "ìĤ¬ë¦¬": 5473,
      "ìĦ±ìĭ¤": 5474,
      "ë±ĥ": 5475,
      "ë¦¬ë²Ħ": 5476,
      "ê°ķì¢Į": 5477,
      "ëıĦë§Ŀ": 5478,
      "ìĤ°íĸī": 5479,
      "ëĬĶê°Ģ": 5480,
      "ìĨĮë§¤": 5481,
      "ìĥĪíķ´": 5482,
      "ì±ĶíĶ¼ìĸ¸": 5483,
      "ì¹ĺê²Į": 5484,
      "ê¼¼ê¼¼íŀĪ": 5485,
      "ë§Īêµ¬": 5486,
      "ê¸°ìĸ´": 5487,
      "ê°Ħíĺ¸": 5488,
      "ëħ¸ëŀĢ": 5489,
      "ë§¥ìĬ¤": 5490,
      "ìĺ¤ë¥´ëĬĶ": 5491,
      "ë¸Ķë¡Ŀ": 5492,
      "ì³Ĳëĭ¤": 5493,
      "ë®¤ì§ģ": 5494,
      "ì¦Ĳê²ģê²Į": 5495,
      "ìĭłìĦ¸ê³Ħ": 5496,
      "ê²½ê³Ħ": 5497,
      "ê¸°ìĺ¨": 5498,
      "íķĺíĬ¸": 5499,
      "ìµľìĥģ": 5500,
      "ì»¤ìĬ¤": 5501,
      "ìĸ»ìĿĦ": 5502,
      "ë§İì§Ģ": 5503,
      "íİĺìĿ´ìĬ¤ë¶ģ": 5504,
      "ìĪĺëĭ¨": 5505,
      "ê¹ĬìĿ´": 5506,
      "ê·¸ëłĪìĿ´ëĵľ": 5507,
      "ìĥĪëĪĦë¦¬ëĭ¹": 5508,
      "ì§Ģë°°": 5509,
      "ìĿĢê·¼": 5510,
      "êµ°ìĤ¬": 5511,
      "ë¬¼ê°Ģ": 5512,
      "ë°©ê¸Ī": 5513,
      "ì²ľìĤ¬": 5514,
      "ìľĮ": 5515,
      "ì°¨ëĮĢ": 5516,
      "ê³µëŀµ": 5517,
      "ìŀĩëĬĶ": 5518,
      "ì§Ģìĭľ": 5519,
      "íĥľêµŃ": 5520,
      "ìĵ°ëŁ¬": 5521,
      "ë¥´íĬ¸": 5522,
      "ìĸ´ëĳĲ": 5523,
      "ëľ©": 5524,
      "ëıĦêµ¬": 5525,
      "ìļĶê°Ģ": 5526,
      "ìĸ»ìĸ´": 5527,
      "ìŀ¥ëĤľê°Ĳ": 5528,
      "ìķ¼ìĻ¸": 5529,
      "ê±¸ëł¤": 5530,
      "ìį¨ìĦľ": 5531,
      "íĨ¨": 5532,
      "êµ¬ë¯¸": 5533,
      "ë°Ķë¦¬": 5534,
      "ëıĦë°°": 5535,
      "ì¡°ìŀĳ": 5536,
      "ë§Įìľ¼ë¡ľ": 5537,
      "ëĵ¤ìĿĢ": 5538,
      "ìĨĲìĭ¤": 5539,
      "ì¡°íĻĶ": 5540,
      "ì¦Ĳê¸°ëĬĶ": 5541,
      "ìĽĲëĤ´": 5542,
      "íĨµê³Ħ": 5543,
      "ìķ¡ìłķ": 5544,
      "ìĦ¤íĥķ": 5545,
      "íķĺìĺĢê³ł": 5546,
      "ìłĵ": 5547,
      "ëħ¼ë¦¬": 5548,
      "ìķĦìĿ´ìĬ¤": 5549,
      "íļįëĵĿ": 5550,
      "íĹĪë¸Į": 5551,
      "ë³´ëĭ¤ëıĦ": 5552,
      "ì¶©ì²Ń": 5553,
      "ë¥¨": 5554,
      "ë³µìĽĲ": 5555,
      "ìłľë¡ľ": 5556,
      "ìį¨ìķ¼": 5557,
      "ë©´íĹĪ": 5558,
      "ê´Ģì°°": 5559,
      "ë°ĽìķĦëĵ¤": 5560,
      "íı´ë¦¬": 5561,
      "ìºłíİĺìĿ¸": 5562,
      "íĮĮëŀĢ": 5563,
      "ìłķëĭµ": 5564,
      "ëłĪëª¬": 5565,
      "ì¢ĭìķĺìĸ´": 5566,
      "íĥĢìĿ´íĭĢ": 5567,
      "ì§ĢëĦ¤": 5568,
      "êµŃë°©": 5569,
      "ë°ĺì§Ģ": 5570,
      "ê³¨ëĿ¼": 5571,
      "ëŀ´": 5572,
      "ì·¨ê¸ī": 5573,
      "ì´Īì½ľ": 5574,
      "íķĺëįĺëį°": 5575,
      "íĶ¼ë¡ľ": 5576,
      "ì¤¬ëĭ¤": 5577,
      "íĮĮê´´": 5578,
      "ìļ´ìĨ¡": 5579,
      "ê±°ëĵŃ": 5580,
      "ëŁ¬ë¦¬": 5581,
      "íı¬ì¦Ī": 5582,
      "ê±°ê³ł": 5583,
      "ê²½ë¹Ħ": 5584,
      "ch": 5585,
      "ëĤľë¦¬": 5586,
      "ìĨĮíĴĪ": 5587,
      "íĹ¤íĹ¤": 5588,
      "ìłĢìŀĲ": 5589,
      "ê»ĳ": 5590,
      "ëĭ¤ìĿ´ìķĦ": 5591,
      "ë¶Ģì±Ħ": 5592,
      "ìľłíĬľë¸Į": 5593,
      "ìĿ¸ëĭ¤": 5594,
      "it": 5595,
      "ê°ĢìĦ¸ìļĶ": 5596,
      "ë¦¬ëª¨ëį¸ë§ģ": 5597,
      "ìľłìłĦ": 5598,
      "ë¶ĢìŀĲ": 5599,
      "êµ°ëĮĢ": 5600,
      "ì¿łíĤ¤": 5601,
      "ëŀĢëĵľ": 5602,
      "ìļ°ìĻĢ": 5603,
      "ìļĶê¸°": 5604,
      "ëĵ£ëĬĶ": 5605,
      "ì²łíķĻ": 5606,
      "íĿĲíĿĲ": 5607,
      "ve": 5608,
      "ìĭłëıĦìĭľ": 5609,
      "ì°¨ìķ¡": 5610,
      "ì°½ìĿĺ": 5611,
      "ë¯¼ìĽĲ": 5612,
      "ëıĻíĸī": 5613,
      "ìĦľë¦¬": 5614,
      "ê±°ìļ¸": 5615,
      "ìĭ¬ìĭ¬": 5616,
      "ì£¼ë¦Ħ": 5617,
      "íĺ¹ìĭľëĤĺ": 5618,
      "íĮ¨ëĶ©": 5619,
      "ìŀħìĪł": 5620,
      "íĮĲë§¤ê¸Ģ": 5621,
      "ê¼¬ë¦¬": 5622,
      "ìļ©ëĭ¬": 5623,
      "ë°Ģìĸ´": 5624,
      "ìĭ¤ì§Ī": 5625,
      "ìĸ´ëł¤ìĽĮ": 5626,
      "ëĥīëıĻ": 5627,
      "ì«ĵ": 5628,
      "ëĤ´ìŀ¥": 5629,
      "ëĿ¼ì§Ģ": 5630,
      "ë§ĽìŀĪìĸ´": 5631,
      "ê¹Ģì¢ħ": 5632,
      "ì¿¼": 5633,
      "ìĽ¬": 5634,
      "íĿ°ìĥī": 5635,
      "íĬĢê¹Ģ": 5636,
      "ì£¼ì£¼": 5637,
      "ê³łêµ¬ë§Ī": 5638,
      "íĥĢìŀĲ": 5639,
      "ìĿ´íĥľ": 5640,
      "ìĥ´íĳ¸": 5641,
      "ëıĦì¿Ħ": 5642,
      "ëĭµê²Į": 5643,
      "ìĸ´ìļ¸ë¦¬ëĬĶ": 5644,
      "íķĺê²łëĭ¤ê³ł": 5645,
      "ë§Įëĵ¤ìĹĪëĭ¤": 5646,
      "ë§Ĳíķľ": 5647,
      "ìŀ¡ìĿĢ": 5648,
      "ìŁĪ": 5649,
      "íĸĪì§Ģ": 5650,
      "ìĨ¡íĮĮ": 5651,
      "ì»¨ëĶĶìħĺ": 5652,
      "ë¶Ħíķ´": 5653,
      "ìļĶëłĩê²Į": 5654,
      "íĮľ": 5655,
      "ìĤ´ìĿ¸": 5656,
      "ìĦ¬ìľł": 5657,
      "ë¨¹ì§Ģ": 5658,
      "ìŀĺëª»ëĲľ": 5659,
      "ëĤĺìĺ¤ì§Ģ": 5660,
      "íĸĪìĿĮ": 5661,
      "íĨłëģ¼": 5662,
      "ì¤Ģëĭ¤ê³ł": 5663,
      "íķľê°ķ": 5664,
      "íĪ¬ìĪĺ": 5665,
      "ì¶ľëıĻ": 5666,
      "ëĵ¤ìĹĪ": 5667,
      "ëĲĲìĬµëĭĪëĭ¤": 5668,
      "ìĭ¤ë²Ħ": 5669,
      "ìĸĳìĤ°": 5670,
      "ëĭīìĬ¤": 5671,
      "ëĵ¤ìĿĦ": 5672,
      "ì°¨íĬ¸": 5673,
      "ê³łë°±": 5674,
      "ëłĢëĭ¤": 5675,
      "ë¬¸êµ¬": 5676,
      "ìķĮìķĺëĬĶëį°": 5677,
      "ë¡ľëĺĲ": 5678,
      "ìĹ°ëĮĢ": 5679,
      "íģ¬ëĮĢ": 5680,
      "ìĤ¬ìĽĲ": 5681,
      "ëĤ©ë¶Ģ": 5682,
      "ëĥł": 5683,
      "ì§Ħë¡ľ": 5684,
      "ëĳĲë¶Ģ": 5685,
      "ëĮĦìĬ¤": 5686,
      "ìĺģìĽħ": 5687,
      "ê³łëıĦ": 5688,
      "íķĺìħ¨ìĸ´": 5689,
      "áħ²": 5690,
      "ìĵ°ë©´": 5691,
      "ëªħìłĪ": 5692,
      "ìķķë°ķ": 5693,
      "ê´ĢìĦ¸": 5694,
      "ëīĺ": 5695,
      "íĶ¼íĦ°": 5696,
      "ë³µìļ©": 5697,
      "ëıĻíĺ¸": 5698,
      "ëıĻë¶Ģ": 5699,
      "ìĺ¤ë¸Į": 5700,
      "ë¶Īë¦¬": 5701,
      "ìķĦë©Ķë¦¬": 5702,
      "ë§¤ê°ģ": 5703,
      "ë¶ĦìŁģ": 5704,
      "ìŀĲìľ¨": 5705,
      "ìĭłìĥĿ": 5706,
      "ê±°ì§ĵë§Ĳ": 5707,
      "ëª¨ëĭĿ": 5708,
      "ìĿ´ë¯¼": 5709,
      "íı¬ëıĦ": 5710,
      "ë¹Ħì¦ĪëĭĪìĬ¤": 5711,
      "ì¦Ĳê¸°": 5712,
      "ë¶ĢëĵľëŁ¬ìļ´": 5713,
      "ìŀĪìľ¼ìĭľë©´": 5714,
      "ìĦ±ë³Ħ": 5715,
      "ìľĦíĺĳ": 5716,
      "íĮĮì£¼": 5717,
      "ìĭłë¶Ħ": 5718,
      "ìŀħìĸĳ": 5719,
      "ìµľëĭ¤": 5720,
      "ìĿĺë¢°": 5721,
      "ìį¹": 5722,
      "ìĸ¸ìłłê°Ģ": 5723,
      "ìĽłëįĺ": 5724,
      "ëĵ±ê¸°": 5725,
      "ìĺĪë¯¼": 5726,
      "ìĻĶëįĺ": 5727,
      "ë¹ĦëĶĶìĺ¤": 5728,
      "ì´Īë¡Ŀ": 5729,
      "ëĦĺëĤĺ": 5730,
      "ëĤ¯": 5731,
      "íĽĦë°°": 5732,
      "ê¹Įì§Ħ": 5733,
      "ë¹ĦëĪĦ": 5734,
      "ë¯¸ìĬ¤": 5735,
      "íĨµìĥģ": 5736,
      "ìķĪê³ł": 5737,
      "ëıħìŀĲ": 5738,
      "ëĬĺìĸ´ëĤĺ": 5739,
      "ìĸ´ëĸłíķľ": 5740,
      "íĦ°ì¹´": 5741,
      "ìĹħê·¸ëłĪìĿ´ëĵľ": 5742,
      "ë°ĺëł¤": 5743,
      "ë°ĺê°Ģ": 5744,
      "ì¶Ķêµ¬": 5745,
      "ì¢ħì¢ħ": 5746,
      "ìº¬": 5747,
      "ìļĶìķĪëħķ": 5748,
      "ê²½ì°°ìĦľ": 5749,
      "ëĲĺìħ¨": 5750,
      "ì§Ģíĺľ": 5751,
      "ìĿ´ìģĺê²Į": 5752,
      "ì¡°ë§Į": 5753,
      "ê·¸ëŁ¬ëĭ¤": 5754,
      "ë°©íķ´": 5755,
      "ìľĦìĥĿ": 5756,
      "ìŀĲìłľ": 5757,
      "íĨ°": 5758,
      "ìĤ¬ëĥ¥": 5759,
      "ë¬¼ëŁ¬": 5760,
      "ì§ĢëĮĢ": 5761,
      "ìºĲíĶ¼": 5762,
      "ê¸°íķľ": 5763,
      "ìľłëŀĳ": 5764,
      "ê¹ĶëģĶíķĺê²Į": 5765,
      "ë¬´ìłľíķľ": 5766,
      "ìĪĺëł¹": 5767,
      "íĮ¬ì¸ł": 5768,
      "ëł¤ëĤĺ": 5769,
      "êµŃìłķ": 5770,
      "ë²ĮëłĪ": 5771,
      "ìĦ°": 5772,
      "ë©ĺíĬ¸": 5773,
      "ê³µíı¬": 5774,
      "ëģĿëĤľ": 5775,
      "ëª¬ìĬ¤íĦ°": 5776,
      "ê³µìłľ": 5777,
      "íķĺìħ¨ìĬµëĭĪëĭ¤": 5778,
      "ëĿ¼ëĭĪ": 5779,
      "ë³´ìķĺìĬµëĭĪëĭ¤": 5780,
      "íĶĦëłĪìŀĦ": 5781,
      "ë¶Ģì°©": 5782,
      "ì£¼ìĭľê¸¸": 5783,
      "ìĿĮìĦ±": 5784,
      "ëŀĦê¹Į": 5785,
      "ë²Ħë¦´": 5786,
      "ìĿ¸ê°ķ": 5787,
      "ì£½ìĿĦ": 5788,
      "ìľłë°ľ": 5789,
      "êµŃìĸ´": 5790,
      "ìķĦëĭĪëĿ¼ê³ł": 5791,
      "ìŀħìĿĦ": 5792,
      "ë§Īë¥´": 5793,
      "íĸĩìĤ´": 5794,
      "ì°¨ì¢ħ": 5795,
      "ìĦ¸ëł¨": 5796,
      "ì²łìĪĺ": 5797,
      "ìŀĪìĹĪì§Ģë§Į": 5798,
      "ëĭ¤ëĭĲ": 5799,
      "ìĿ¼ìŀĲ": 5800,
      "ìļ°ê¸°": 5801,
      "ìŀĲìĿ´": 5802,
      "ëªħìĿĺ": 5803,
      "íĸĪìľ¼ë©´": 5804,
      "ìĿ´ìłķ": 5805,
      "ìĹ¬ë¡ł": 5806,
      "ëĤłìķĦ": 5807,
      "ìĹĨì§Ģ": 5808,
      "ìłĦëĿ¼": 5809,
      "ìĪĺê¸ī": 5810,
      "ì¡°ë§Įê°Ħ": 5811,
      "ìĭ¶ìĹĪëĬĶëį°": 5812,
      "ì½ĶìĽ¨ìĿ´": 5813,
      "ë¬´ìĤ¬": 5814,
      "ìľłìļ©": 5815,
      "ëį¥": 5816,
      "ê¸°ìłĢ": 5817,
      "ìĸ´ë¦´": 5818,
      "ìŀ¡ìĿĦ": 5819,
      "ìħĢíĶĦ": 5820,
      "ìķĦë¦Ħëĭ¤": 5821,
      "ìĬ¤íİĺìħľ": 5822,
      "ìĿ´ìĪĺ": 5823,
      "ìĺģìĪĺ": 5824,
      "ê´ĳìĹŃìĭľ": 5825,
      "ë§ĽëĤĺ": 5826,
      "ëĭ¨ë°±": 5827,
      "ìŀłìĭ¤": 5828,
      "ìĹ¬ê¸´": 5829,
      "ìĹ´ì°¨": 5830,
      "íĳ¸ë¥¸": 5831,
      "ëıĮìĿ´": 5832,
      "íĬ¹ê°ķ": 5833,
      "ìĿ´ëģĮìĸ´": 5834,
      "ë³Ģê¸°": 5835,
      "ìŀ¥ë¯¸": 5836,
      "ëĬĲëģ¼ëĬĶ": 5837,
      "ìķµì»¤": 5838,
      "ë¹ĦëĤľ": 5839,
      "ê·¸ëŁ¬ê²Į": 5840,
      "ìļĶìĺ¤": 5841,
      "ìłĦì§Ģ": 5842,
      "íıīë²Ķ": 5843,
      "pu": 5844,
      "ëª¨ìĿĺ": 5845,
      "ìľĪëıĦìļ°": 5846,
      "ëĭ¤ë¥¼": 5847,
      "ê°Ħëĭ¨íķĺê²Į": 5848,
      "ìķħíĻĶ": 5849,
      "êµ¬ìłľ": 5850,
      "ìķĦìĭľëĬĶ": 5851,
      "ë²Ħëł¸ëĭ¤": 5852,
      "ë¬´ëĬ¬": 5853,
      "ëª¨ë¥¼": 5854,
      "ìĥĿì¡´": 5855,
      "ìĻ¸ì¶ľ": 5856,
      "ëĭ¹ìĦł": 5857,
      "ìĺ¤ìħĶìĦľ": 5858,
      "ê¶Įëł¥": 5859,
      "ìĦľìļ¸ëĮĢ": 5860,
      "ëĤ´ë¦°": 5861,
      "íĻįëĮĢ": 5862,
      "ëŃĩ": 5863,
      "ëª¨ëŀĺ": 5864,
      "ê°ľêµŃ": 5865,
      "ëĭ¤ë¦Ħ": 5866,
      "íĹ¨": 5867,
      "ëĶ±íŀĪ": 5868,
      "ìĺ¤íĶĦëĿ¼ìĿ¸": 5869,
      "ì§ģìłĦ": 5870,
      "ì£¼ìµľ": 5871,
      "êµ¬íķ´": 5872,
      "ëįĶëŁ¬": 5873,
      "ëĶĶìŀĲìĿ´ëĦĪ": 5874,
      "ì¤ĳëıħ": 5875,
      "ê²½ë¡ľ": 5876,
      "ë¨¹ìĹĪìĸ´": 5877,
      "se": 5878,
      "ê³łê°Ģ": 5879,
      "ë°ľíľĺ": 5880,
      "êµ¬ëĭĪ": 5881,
      "ì²Ńìķ½": 5882,
      "ëĮĢì²ĺ": 5883,
      "ìŀĺíķ´": 5884,
      "íĹ·": 5885,
      "íħĮìĿ¸": 5886,
      "ë§Īìļ°ìĬ¤": 5887,
      "íķ´ìĪĺ": 5888,
      "ë¸ĮëłĪìĿ´íģ¬": 5889,
      "ìĹ°ê·¹": 5890,
      "íīģ": 5891,
      "íĻĶëł¤íķľ": 5892,
      "íĨłë§ĪíĨł": 5893,
      "ëª¨ì°¨": 5894,
      "ìķ¡ìħĺ": 5895,
      "ê¸°ìģ¨": 5896,
      "ê°Ģëĵľ": 5897,
      "ì°½ë¬¸": 5898,
      "ëĲĺìĹĪëĬĶëį°": 5899,
      "ì£µ": 5900,
      "ì»¤íĬ¸": 5901,
      "ëĤĺìĿĢ": 5902,
      "ìĺ¤ëłĮì§Ģ": 5903,
      "ìĭŃëĭĪê¹Į": 5904,
      "ê°¯": 5905,
      "íķ¨ìľł": 5906,
      "ì°¨ëĿ¼ë¦¬": 5907,
      "ë°Ķëŀĺ": 5908,
      "íĨµìłľ": 5909,
      "ëıĦëĬĶ": 5910,
      "ê¹ĢìĦ±": 5911,
      "ìĭľìĤ¬": 5912,
      "ì»¤ìĦľ": 5913,
      "ìĬ¬ë¦¼": 5914,
      "íĬ¼íĬ¼": 5915,
      "ì£¼ìĦ¸ìļ©": 5916,
      "íķĺì§Ħ": 5917,
      "ìķ°": 5918,
      "íħĮëĭĪ": 5919,
      "ëĵľëł¸ìĸ´": 5920,
      "ê°ľìĦ±": 5921,
      "ìĥĿê¸¸": 5922,
      "ëĤ´ë©´": 5923,
      "ìĿĺìĥģ": 5924,
      "íĳľê¸°": 5925,
      "ìķĦë¬´ëŁ°": 5926,
      "ì£¼ë©°": 5927,
      "ëĳł": 5928,
      "ë§¤ë²Ī": 5929,
      "ë¯¸ëĵľ": 5930,
      "ìĽ¨ëĶ©íĻĢ": 5931,
      "íĴĪìłĪ": 5932,
      "ëļľê»ĳ": 5933,
      "ë°ĿìĿĢ": 5934,
      "íĤ´": 5935,
      "ëĤ´ìķ¼": 5936,
      "ì¥¬ìĸ¼": 5937,
      "gb": 5938,
      "ìĤ´ëł¤": 5939,
      "ë³¼ê²Į": 5940,
      "ìĻ¸ë¡ľ": 5941,
      "ë°°ì¶Ķ": 5942,
      "ê°Ģê¹Ŀ": 5943,
      "íļŁìĪĺ": 5944,
      "íĸĪëĭµëĭĪëĭ¤": 5945,
      "íķ´ì§Ī": 5946,
      "ì¢ĭê²łëĦ¤": 5947,
      "ìļ©ìĤ°": 5948,
      "ëĭ¤ëħĶ": 5949,
      "íĺĪìķ¡": 5950,
      "ëĮĢê²°": 5951,
      "íĽĦëĵľ": 5952,
      "ê»ĺìĦľëĬĶ": 5953,
      "ìĬĪì¦Ī": 5954,
      "ëĵ£ê¸°": 5955,
      "ì§Ģíĳľ": 5956,
      "ë¹ĦëĭĲ": 5957,
      "ìŀĺëĿ¼": 5958,
      "ìĺĪëĬ¥": 5959,
      "ëĪĦìłģ": 5960,
      "íķ´ìķ¼ì§Ģ": 5961,
      "ìĹ¬ê±´": 5962,
      "ìĨĮìĪĺ": 5963,
      "ê¸°ìłģ": 5964,
      "ì§ĦíķĻ": 5965,
      "ìĹ£": 5966,
      "ìĿĺìķ½": 5967,
      "ìºĺ": 5968,
      "ì¶Ķì¶ľ": 5969,
      "ì§ģë¬´": 5970,
      "íķłìķĦë²Ħì§Ģ": 5971,
      "ì¶ĺì²ľ": 5972,
      "ê°ł": 5973,
      "ë§Ĳë¡ľ": 5974,
      "ìĭ¤ìĤ¬": 5975,
      "ìĹ¬ìŃ": 5976,
      "ë¸Įë¡ľ": 5977,
      "ê°ĶìĬµëĭĪëĭ¤": 5978,
      "ìĿ½ê¸°": 5979,
      "íķĺëįĶêµ°": 5980,
      "ì§Ħì§Ģ": 5981,
      "ê°ķëıĦ": 5982,
      "íĩ´ì§ģ": 5983,
      "ìŀĪê¸´": 5984,
      "êµŃìŀ¥": 5985,
      "ìĿ¸ìļ©": 5986,
      "ì°¢": 5987,
      "ë§¤ì§ģ": 5988,
      "ëµĪ": 5989,
      "ìľ¼ë¡ł": 5990,
      "ìĭ¶ì§Ģ": 5991,
      "ìĿĺìłķë¶Ģ": 5992,
      "ëĨįê°Ģ": 5993,
      "ìĤ¼ê²¹": 5994,
      "ê²½íĸ¥": 5995,
      "ë¶Ħëħ¸": 5996,
      "ìĿ´ë¥´": 5997,
      "íĸĪëĭ¤ê°Ģ": 5998,
      "ê°ĸì¶ĺ": 5999,
      "ê°ķìĦľ": 6000,
      "ìĿ´ìľłìĭĿ": 6001,
      "êµŃìĤ°": 6002,
      "ìĸ´ìĿ´": 6003,
      "ìĭľì¼°ëĭ¤": 6004,
      "êµ¬ëĳĲ": 6005,
      "ìĤ¬ë¡ľ": 6006,
      "ì¿µ": 6007,
      "ìĤ¬ìķ¼": 6008,
      "ìĹĨêµ¬": 6009,
      "ëĨĢìķĦ": 6010,
      "ê³łë¬´": 6011,
      "ì¢Įì¸¡": 6012,
      "ëĦ¤ë¹Ħ": 6013,
      "ì¹´ìļ´": 6014,
      "ìĨĮì£¼": 6015,
      "ë²Ħë¦¬ëĬĶ": 6016,
      "ìĽłìĸ´": 6017,
      "íĬ¸ë¡¤": 6018,
      "ìķĦíĭ°": 6019,
      "ì½§": 6020,
      "ìĺ¤ì§ģ": 6021,
      "ìĭľëĦ¤": 6022,
      "ì¶ľìŀħ": 6023,
      "íĮĮíĬ¸ëĦĪ": 6024,
      "ìŀħì§Ģ": 6025,
      "ìķĮíĮĮ": 6026,
      "ì§ł": 6027,
      "ê°ľë°©": 6028,
      "ê³łìĭľ": 6029,
      "ëĿ¼ëĶĶìĺ¤": 6030,
      "ë©´ìłľ": 6031,
      "ìľłíĸī": 6032,
      "ëıĻìķĦ": 6033,
      "ì´Īì²Ń": 6034,
      "ê¾¸ë¯¸": 6035,
      "íĨµíķĺìĹ¬": 6036,
      "ìĹ°ìĿ¸": 6037,
      "ëĪĪìį¹": 6038,
      "ìĪĺëĭ¤": 6039,
      "ë§¤ì²´": 6040,
      "íĿ¬ìĥĿ": 6041,
      "íĥĪì¶ľ": 6042,
      "ì¢ĮìĦĿ": 6043,
      "ëĭ¨ìĪľíŀĪ": 6044,
      "ìĥģìĭľ": 6045,
      "ìĺģëĵ±": 6046,
      "ìĤ´ê¸°": 6047,
      "ë§ĮëĤĺëĬĶ": 6048,
      "ê³łíĸ¥": 6049,
      "ìĦľëĬĶ": 6050,
      "ëıĮìķĦê°Ģ": 6051,
      "ê°Ģë¥´ì³Ĳ": 6052,
      "ë¡ľì§Ģ": 6053,
      "íķľêµŃëĭ¹": 6054,
      "ìĹ¬ìĿĺëıĦ": 6055,
      "ìĭ¤ìĬµ": 6056,
      "ëłĪìĬ¤íĨł": 6057,
      "ìķĦëĭĪìķ¼": 6058,
      "ìĬ¤íĶ¼ì»¤": 6059,
      "íģ¬ë¡ľìĬ¤": 6060,
      "ëĭ¤ëĭĪê³ł": 6061,
      "ìŀ¬ëĤľ": 6062,
      "ì°įëĬĶ": 6063,
      "ë¶ĦëªħíŀĪ": 6064,
      "ëįĶìļ´": 6065,
      "ì§Ħìĺģ": 6066,
      "ëĵ¤ì§Ģ": 6067,
      "ìĦ¤ë§Ī": 6068,
      "ëĭ¬ê³ł": 6069,
      "íķľëĳĲ": 6070,
      "ìĸ´ì¨Į": 6071,
      "ëĭ¤ì§Ĳ": 6072,
      "ë³¶ìĿ´": 6073,
      "ìĹ¬ìĪĺ": 6074,
      "ì¤Ħê¸°": 6075,
      "ìĭ¬íĶĮ": 6076,
      "ê°ľìĦ¤": 6077,
      "ì¶ķìĨĮ": 6078,
      "ì²´ì¤ĳ": 6079,
      "íģ´ëłĮ": 6080,
      "ìĦłì§Ħ": 6081,
      "ìĭ¤ë¦¬": 6082,
      "íķ©ìĦ±": 6083,
      "ë¥´ìĭł": 6084,
      "ë¶Ģê³¼": 6085,
      "ëłĮíĦ°ì¹´": 6086,
      "ëĵľëł¸ìĬµëĭĪëĭ¤": 6087,
      "ëıĻìĤ¬": 6088,
      "ëłĲ": 6089,
      "ëĭ¬ëĭ¬": 6090,
      "ìĪĺë¦½": 6091,
      "ëĵ±ëĿ½": 6092,
      "ìĿ´íĸī": 6093,
      "íħĮìĿ´ìħĺ": 6094,
      "ë¡ľìħĺ": 6095,
      "ì²¨ëĭ¨": 6096,
      "ê³µíķĻ": 6097,
      "ëĤ¸ëĭ¤": 6098,
      "ë¹Ħë¹Ħ": 6099,
      "ëłĪìĭľíĶ¼": 6100,
      "ìºĲíĶ¼íĥĪ": 6101,
      "íķĦë¦¬": 6102,
      "ë©Ķë¥´": 6103,
      "ìĭ¬ìĿĺ": 6104,
      "ê¸ĢìĶ¨": 6105,
      "ëĲĺì§Ģë§Į": 6106,
      "ì°Įê°ľ": 6107,
      "ì£¼ìŀĲ": 6108,
      "ìķīìķĦìĦľ": 6109,
      "ëıĶ": 6110,
      "ëĵłëĵł": 6111,
      "ê°Ħëĭ´": 6112,
      "íĬ¸ìľĦ": 6113,
      "ì½Ķì¹ĺ": 6114,
      "ë¬´ëĭ¨": 6115,
      "ê¹Ģíĥľ": 6116,
      "íĪ¬ë£¸": 6117,
      "ê¸°ìĥģ": 6118,
      "ë§ĪìĿ¸": 6119,
      "ìŀ¬ë¬´": 6120,
      "ê°ĢëıĻ": 6121,
      "ìĿ¸íĶĦëĿ¼": 6122,
      "ìĭ¶ìĿĦ": 6123,
      "ë¡ľê³ł": 6124,
      "ëĤ´ìĻ¸": 6125,
      "ê¸°íĺ¸": 6126,
      "ë¨¹ìĹĪëĭ¤": 6127,
      "ìĭľìĥģ": 6128,
      "íĮ©íĬ¸": 6129,
      "ëĤłê°ľ": 6130,
      "ë³´ìĬµ": 6131,
      "íħĮëŁ¬": 6132,
      "ìĹĲëĭ¤": 6133,
      "ëĤĺìĦ°ëĭ¤": 6134,
      "ì±ĦìĨĮ": 6135,
      "ìķĬìķĺìĬµëĭĪëĭ¤": 6136,
      "ë¬¸ìĦľ": 6137,
      "ìĦľêµ¬": 6138,
      "ëŀĳìĿ´": 6139,
      "ëª¬ëĵľ": 6140,
      "ê½ģ": 6141,
      "ìļ°ì²´": 6142,
      "ëłĺ": 6143,
      "ë¨¹ìľ¼ëŁ¬": 6144,
      "íĥĿíı¬": 6145,
      "íģ¬ëĭ¤": 6146,
      "ì´Ŀìķ¡": 6147,
      "ê¶ģê¸Īíķ´": 6148,
      "ìĸĦ": 6149,
      "ìĦľì´Ī": 6150,
      "ë°©ìĪĺ": 6151,
      "ë²¨íĬ¸": 6152,
      "ìŀĦìĥģ": 6153,
      "ìĽĲë¦¬": 6154,
      "ëĵľëŀĺê³¤": 6155,
      "ìħ°": 6156,
      "ìĤ°ëĭ¤": 6157,
      "ë¹Ħë¡Ŀ": 6158,
      "ìłĪê°Ĳ": 6159,
      "ìĨĮíĻĺ": 6160,
      "ëģ¼ê³ł": 6161,
      "íĺĳì¡°": 6162,
      "ì¼ĢìĿ´ìħĺ": 6163,
      "ìĹĨê¸°": 6164,
      "ë³´ì¶©": 6165,
      "ìĹ¬ìķĦ": 6166,
      "ìķĬëĦ¤": 6167,
      "ë¹Ħìĭ¸ë©´": 6168,
      "ìĦłìŀĦ": 6169,
      "ë³´ìĿ´ëĦ¤": 6170,
      "ëĤ¨ëıĦ": 6171,
      "ê¸°ê¸Ī": 6172,
      "ìĨ¡ê¸Ī": 6173,
      "íķľìŀĲ": 6174,
      "ëıĦë³´": 6175,
      "íļĮê²¬": 6176,
      "ëĭ´ê¸´": 6177,
      "ì·¨ì§Ģ": 6178,
      "ìļ§": 6179,
      "ë²ļ": 6180,
      "ê°ķëıĻ": 6181,
      "ìŀĪê²ł": 6182,
      "ë§ĮëĤ¬": 6183,
      "ë³¸ë¬¸": 6184,
      "íĿĶìłģ": 6185,
      "ë¬´ëĦĪ": 6186,
      "ë¬´ìĸ¸": 6187,
      "ìĦ±íĸ¥": 6188,
      "ëłĪìĿ¼": 6189,
      "ëŀĢíĬ¸": 6190,
      "ìĨĮëıħ": 6191,
      "ìĦľë©´": 6192,
      "ë¡ľë§¨": 6193,
      "ìĿ´ëªħ": 6194,
      "ë¬´ê´Ģ": 6195,
      "íķĻìłĲ": 6196,
      "íħĲíĬ¸": 6197,
      "ëĭ¤íģ¬": 6198,
      "ëįĶìľĦ": 6199,
      "ë¡ľë¦¬": 6200,
      "íĥĦëł¥": 6201,
      "ìĸĳíķ´": 6202,
      "íĻĺê¸ī": 6203,
      "ë©Ķëĭ¬": 6204,
      "ìļ´ëªħ": 6205,
      "ëª¨ë¥´ê²Į": 6206,
      "ë²łëŀĢëĭ¤": 6207,
      "íķĻë¶Ģëª¨": 6208,
      "ìľłê°Ģ": 6209,
      "ìļĶê·¸": 6210,
      "ëªħíĻķ": 6211,
      "ë³´ëĭ¤ê°Ģ": 6212,
      "ìĿ´ìĺĢ": 6213,
      "ê²°ìĬ¹": 6214,
      "ìŀ¥ìĤ¬": 6215,
      "íİ¸ìĦ±": 6216,
      "íķĺìħĶ": 6217,
      "ìŀŃ": 6218,
      "ìķĦíĨł": 6219,
      "ë§¤ëĦĪ": 6220,
      "ìķĪì£¼": 6221,
      "ìĺ¬ëŀĲ": 6222,
      "ê³µë°©": 6223,
      "ëłĪìĬ¤íĨłëŀĳ": 6224,
      "ìĺģëĵ±íı¬": 6225,
      "íı¬íĦ°": 6226,
      "ìĭłìĦ¤": 6227,
      "ìķĮëľ°": 6228,
      "ëŁ°ëįĺ": 6229,
      "ìĿ´ëįĺ": 6230,
      "ìĥĮëĵľ": 6231,
      "ìķĪë³´": 6232,
      "ë¬¸ìłľìłĲ": 6233,
      "ë¶Ģíıī": 6234,
      "ìŀ¥ìĪĺ": 6235,
      "ìķĪëĲ©ëĭĪëĭ¤": 6236,
      "ìĺ¬ë¦½ëĭĪëĭ¤": 6237,
      "ê±°ëĮĢ": 6238,
      "ëª¨ìĿĮ": 6239,
      "íı¬ì¼ĵ": 6240,
      "ì§Ģì§Ħ": 6241,
      "ê³µìĭľ": 6242,
      "ìĤ¬ì¹´": 6243,
      "ë´¤ìĿĦ": 6244,
      "ë¶ĢìĬ¤": 6245,
      "ìĤ¿": 6246,
      "ìĬĲ": 6247,
      "ìĭ¬íĮĲ": 6248,
      "ëª©ìļķ": 6249,
      "ìī´": 6250,
      "ìºĲìĭľ": 6251,
      "ìµľìĨĮíķľ": 6252,
      "ìĺ¤ëĿ¼": 6253,
      "ìŀĦìĽĲ": 6254,
      "ê±°ë©´": 6255,
      "ëĦĺì¹ĺëĬĶ": 6256,
      "ëĸ¡ë³¶ìĿ´": 6257,
      "ì»¸": 6258,
      "íķĺìĭŃëĭĪëĭ¤": 6259,
      "íĬ¹ìľł": 6260,
      "ìĺĪë§¤": 6261,
      "ê±¸ë¦°": 6262,
      "ëĲĺêµ¬": 6263,
      "ìĦľëıĦ": 6264,
      "íĥľìĸ´": 6265,
      "ì·¨ìķ½": 6266,
      "ëĵ¤ë©´": 6267,
      "ìĺģê´ĳ": 6268,
      "ìķĦìĿ¼": 6269,
      "ìķĮì§Ģ": 6270,
      "ìļ°ë©´": 6271,
      "ìłĳìĭľ": 6272,
      "ë¶Ħìľł": 6273,
      "ê·¸ëłĩê³ł": 6274,
      "ìĥĿê¸°ëĬĶ": 6275,
      "íĸ¥ìĪĺ": 6276,
      "ë³´ëĤ´ëĬĶ": 6277,
      "ìĻ¸ê´Ģ": 6278,
      "êµŃë¬´": 6279,
      "ì¤ĳêµ¬": 6280,
      "ë§¤ì¹ĺ": 6281,
      "ë¦¬ë©°": 6282,
      "ëĶľëŁ¬": 6283,
      "íĥĢì§Ģ": 6284,
      "ì¹ĺìĹ´": 6285,
      "ë²Ħê·¸": 6286,
      "ê¸ĪìĨį": 6287,
      "ìĪĺì§ĳ": 6288,
      "íıĲì§Ģ": 6289,
      "ë°ĺëıĦì²´": 6290,
      "ë°°ëĭ¹": 6291,
      "íĬ¸ëłĮëĵľ": 6292,
      "ê»Ģ": 6293,
      "ìŀĪìľ¼ë¯Ģë¡ľ": 6294,
      "ìĻľëĥĲ": 6295,
      "ìĭłíĺķ": 6296,
      "ìĸ´ë¨¸ëĭĺ": 6297,
      "ì§¬": 6298,
      "íıŃíĸī": 6299,
      "one": 6300,
      "ìŀĲëĤĺ": 6301,
      "íĴįìĦ±": 6302,
      "ëĨįìŀ¥": 6303,
      "ê°ľë§ī": 6304,
      "ìĭłì²ŃìĦľ": 6305,
      "ë²¤ì²ĺ": 6306,
      "ëıĻìĸĳ": 6307,
      "ë±Ģ": 6308,
      "ìĦ¼ìĦľ": 6309,
      "ë¦¬ê²Į": 6310,
      "ìķĦëĶĶ": 6311,
      "ìĦłê³ł": 6312,
      "ëĲľìŀ¥": 6313,
      "ëĦ£ìĸ´ìĦľ": 6314,
      "ëĨĢê³ł": 6315,
      "íħĮëĿ¼ìĬ¤": 6316,
      "ìĻĢëıĦ": 6317,
      "ëŃĶì§Ģ": 6318,
      "ëĮĢíĳľíĮĢ": 6319,
      "ëłĪìĿ´ìłĢ": 6320,
      "ì§ķìĸ´": 6321,
      "ë²ķìłķ": 6322,
      "ìĹĨìĹĪëįĺ": 6323,
      "ìłĦíĽĦ": 6324,
      "ì²¼": 6325,
      "ì£¼ìħ¨ìĸ´": 6326,
      "ìĺ³": 6327,
      "ìĻĶëĦ¤": 6328,
      "ë§Įê¸°": 6329,
      "íı¬ìĬ¤íĬ¸": 6330,
      "ë¹Ħë°©": 6331,
      "ìĥģíĻĺ": 6332,
      "ê²°ì½Ķ": 6333,
      "ë¶Ģìŀĳìļ©": 6334,
      "ì§ĢìĿĢ": 6335,
      "ì»¤ë¦¬": 6336,
      "ëĭ´ê²¨": 6337,
      "ë§ĮëĤĺìĦľ": 6338,
      "ëĳĲë¦¬": 6339,
      "ê¸°ìĨĮ": 6340,
      "ìł¼": 6341,
      "ëıĦëĮĢì²´": 6342,
      "íĬ¸ëŀĻ": 6343,
      "íķĺìĭľëĦ¤": 6344,
      "íĪ´": 6345,
      "ìŀĪìľ¼ëĭĪê¹Į": 6346,
      "ìĭĿêµ¬": 6347,
      "íķ´ëĿ¼": 6348,
      "íĬ¸ëłĪìĿ´ëĭĿ": 6349,
      "ë°Ķìģľ": 6350,
      "ì§Ģë¦¬": 6351,
      "ìĭ¤ìĹħ": 6352,
      "ì¼Ħ": 6353,
      "íķĺìĹ¬ìķ¼": 6354,
      "ì·Ħ": 6355,
      "ì§ĢìŀĲì²´": 6356,
      "ê´ĳëªħ": 6357,
      "ëª¨ë¥´ê²łëĭ¤": 6358,
      "íķľë°ĺëıĦ": 6359,
      "ëĳ¬": 6360,
      "ê³Ħê³¡": 6361,
      "ë°ĶìĿ´íĬ¸": 6362,
      "ìĺ¬ëĿ¼ê°Ģ": 6363,
      "ë¥´ë¥´": 6364,
      "íĺĢìĦľ": 6365,
      "ê¹į": 6366,
      "ìĤ¬ê°ģ": 6367,
      "íĸĪëĤĺ": 6368,
      "ë¬´ëĤľ": 6369,
      "ìķĦìī¬ìļ´": 6370,
      "íħĶëłĪì½¤": 6371,
      "ìłĦìĦ¤": 6372,
      "ê¸ĢëĿ¼ìĬ¤": 6373,
      "ê¸°ìłĢê·Ģ": 6374,
      "ì´īêµ¬": 6375,
      "ë§īìĥģ": 6376,
      "ë°±ë§Į": 6377,
      "ì¢Įìļ°": 6378,
      "íķĦíŀĪ": 6379,
      "ìĽĲì£¼": 6380,
      "ìĬ¤ëŁ¬ìĽĮ": 6381,
      "íĲ": 6382,
      "íĤ¥": 6383,
      "ë³´ê¸ī": 6384,
      "ì£¼ë¶Ģ": 6385,
      "ìŀĲë¬¸": 6386,
      "ê¸¸ëĵľ": 6387,
      "ì¢ĭìķĦíķ´": 6388,
      "ëĤ¨ê¸°": 6389,
      "ì¶©ë¶Ħíķľ": 6390,
      "ìĹĨìķł": 6391,
      "ìĭľê³¨": 6392,
      "ìľłëª¨ì°¨": 6393,
      "ìĺģíĺ¼": 6394,
      "ìĥģê³µ": 6395,
      "íĥĪëª¨": 6396,
      "ëĤ¨ëĬĶ": 6397,
      "ëµĻ": 6398,
      "íķ´ìłľ": 6399,
      "íĸīìļ´": 6400,
      "ëĤĺê°Ħ": 6401,
      "ë°°ê¸°": 6402,
      "ìĿĳìĭľ": 6403,
      "ì°¾ìľ¼": 6404,
      "ìĬ¤íħĮìĿ´íģ¬": 6405,
      "ê°Ļì§Ģ": 6406,
      "ìī¬ëĬĶ": 6407,
      "íĺĦê´Ģ": 6408,
      "ìĹĨê²Į": 6409,
      "ë°°ìĥģ": 6410,
      "ê³µíĨµ": 6411,
      "ê´Į": 6412,
      "ê°Ģë²¼ìļ´": 6413,
      "ëĭ¨ìĨį": 6414,
      "íĸĪì£ł": 6415,
      "ê³Ħì¸µ": 6416,
      "ëĮĢì§Ģ": 6417,
      "íħĮìĿ¸ë¨¼íĬ¸": 6418,
      "ìł¸ìķ¼": 6419,
      "ìĨĶë¡ľ": 6420,
      "ìĥĿìĦ±": 6421,
      "íķĦëĵľ": 6422,
      "ë°ĽìķĺìĬµëĭĪëĭ¤": 6423,
      "ëıĦìĭ¬": 6424,
      "ìĤ¬ìĿ´ë²Ħ": 6425,
      "ê±°ìłĪ": 6426,
      "ìĸ¸ëįĶ": 6427,
      "ì´ĿíļĮ": 6428,
      "ìĺ¤ìĿ´": 6429,
      "íķĺìŀĲë©´": 6430,
      "íĿĳíĿĳ": 6431,
      "ìķĬìķĺì§Ģë§Į": 6432,
      "ëĦ¨": 6433,
      "ê°ĶìĿĦ": 6434,
      "ìĸ»ê³ł": 6435,
      "ëĨĴëĭ¤": 6436,
      "íĮĮìĬ¤íĥĢ": 6437,
      "íĻķì§Ħ": 6438,
      "ì¡Įê³ł": 6439,
      "íĦ¸ìĸ´": 6440,
      "ìĨĮê°Ĳ": 6441,
      "íķĺë¯Ģë¡ľ": 6442,
      "ëģĦëŁ½": 6443,
      "ëĪĦìĽĮ": 6444,
      "ìĽĲìłķ": 6445,
      "ìķĦìĤ°": 6446,
      "ì§Ģì¶ľ": 6447,
      "ìŀ¥ë¥´": 6448,
      "ì²«ëĤł": 6449,
      "ë©ĶìĿ´ìħĺ": 6450,
      "ìłģëĭ¹íŀĪ": 6451,
      "ê°Ģë§ĮíŀĪ": 6452,
      "ëłĪìĬ¨": 6453,
      "ìĺ¤ì§ķìĸ´": 6454,
      "íĹĪëĭĪ": 6455,
      "ëıĻíķ´": 6456,
      "ëĭ¥íĦ°": 6457,
      "ì£¼ëł¥": 6458,
      "ìŀĥìĸ´": 6459,
      "ë¶ĢíļĮìŀ¥": 6460,
      "ëĸĦ": 6461,
      "ëĮĢê³ł": 6462,
      "ìĭłëĿ¼": 6463,
      "ë§¤ëĭ¬": 6464,
      "ë¹Įëł¤": 6465,
      "ì£¼ìĭ¬": 6466,
      "ê·¸ëłĩì§Ģë§Į": 6467,
      "ë§Įìľ¼ë¡ľëıĦ": 6468,
      "íİĺìĸ´": 6469,
      "íķ´ìĦ¤": 6470,
      "al": 6471,
      "ë²Īì§Ģ": 6472,
      "ë°Ľìľ¼ë©´": 6473,
      "ê°Ģë§¹": 6474,
      "ë³´ìĻĦ": 6475,
      "ê·¸ëŀĺìķ¼": 6476,
      "ìĦ¸ìłľ": 6477,
      "ìĸ´ëĸ¨ê¹Į": 6478,
      "ìĥģíķ´": 6479,
      "ì£¼ìħĶ": 6480,
      "ìłĢì§Ģ": 6481,
      "ì¼ĢìĿµ": 6482,
      "ìĺ¬ë¦¬ë¸Į": 6483,
      "ëĭ¨ë°±ì§Ī": 6484,
      "ëĿ¼ìĿ´ëĶ©": 6485,
      "ì§ĦíĻĶ": 6486,
      "ì£½ìĿĢ": 6487,
      "ìĽĲê°Ģ": 6488,
      "ìĸĳìª½": 6489,
      "ê¾¸ë©°": 6490,
      "íķĦë¦¬íķĢ": 6491,
      "ëĲĲê³ł": 6492,
      "ìĨ¡ìĿ´": 6493,
      "êµ¬ë¡ľ": 6494,
      "ê¹Ģë°¥": 6495,
      "ìķĪëĲł": 6496,
      "íĶĮëŀľ": 6497,
      "ë³µìĪĺ": 6498,
      "ì¶¥": 6499,
      "ëĲĲëĭ¤ê³ł": 6500,
      "ë©ĶìĿ´ëĵľ": 6501,
      "ìĥģëĭ¨": 6502,
      "ìķĮëł¤ìł¸": 6503,
      "íħįìĬ¤": 6504,
      "ë§Įëĵ¤ìĸ´ì§Ħ": 6505,
      "ìĿ´ìĹ¬": 6506,
      "ìĸ´ë¥´ìĭł": 6507,
      "ìķĦìī¬ìĽĢ": 6508,
      "ëħ¹ìĥī": 6509,
      "ëĤ´ìĸ´": 6510,
      "ë°Ģíģ¬": 6511,
      "ëª©ìļĶìĿ¼": 6512,
      "ìłķì§ģ": 6513,
      "ìķĦëĥĲ": 6514,
      "êµ¬íĺĦ": 6515,
      "ëĭ¹ê·¼": 6516,
      "ë¹łë¥´ê³ł": 6517,
      "íĹĮë²ķ": 6518,
      "ë³´ëĬĶëį°": 6519,
      "ìĨĮê³łê¸°": 6520,
      "ì§ĢëĤľì£¼": 6521,
      "ë§Ĳíķĺê³ł": 6522,
      "ìĹ¼ìĥī": 6523,
      "ê°ķë¦ī": 6524,
      "ì°¨ê²Į": 6525,
      "ëĭ¤ëŀĢ": 6526,
      "ì°¬ìĬ¤": 6527,
      "ë¹ĦìĦľ": 6528,
      "ì¤ĳê³Ħ": 6529,
      "ìĹ°ë´ī": 6530,
      "ìĿĳê¸ī": 6531,
      "ëĤĺìĺ¤ëĬĶëį°": 6532,
      "ìŀĲë©´": 6533,
      "ê°ľíİ¸": 6534,
      "ê¸°ëĭ¤ë¦¬ëĬĶ": 6535,
      "ì¡°ìļ©íŀĪ": 6536,
      "ëª©ë¡Ŀ": 6537,
      "ë¹Ħë§Į": 6538,
      "ìĦ±ëªħ": 6539,
      "ìĿ´ë©´ìĦľ": 6540,
      "ê·¤": 6541,
      "ë°ĿíĺĶ": 6542,
      "ìŀĳìłĦ": 6543,
      "ìľ¼ë¯Ģë¡ľ": 6544,
      "ë§Įëĵ¤ìĸ´ìĦľ": 6545,
      "íĸĪìĹĪ": 6546,
      "íķľìļ°": 6547,
      "êµŃëĤ´ìĻ¸": 6548,
      "ìĿĦì§Ģ": 6549,
      "ë²ķìķĪ": 6550,
      "ìłĲì°¨": 6551,
      "ê¹ĢíĺĦ": 6552,
      "ëĶ°ìľĦ": 6553,
      "íķĺê±°ëĵł": 6554,
      "ì´īì§Ħ": 6555,
      "ëĭ¬ëŀĺ": 6556,
      "ì²ľêµŃ": 6557,
      "ë¨¹ê±°ë¦¬": 6558,
      "ìļĶìĸĳ": 6559,
      "íıŃíĴį": 6560,
      "ëª©ìĤ¬": 6561,
      "ë¹Īíĭ°ì§Ģ": 6562,
      "ìĸ´ëķĮ": 6563,
      "ìĪĺìļĶìĿ¼": 6564,
      "ëŀĢíŀĪ": 6565,
      "ë¬´ìĸ¸ê°Ģ": 6566,
      "ìĬ¤íĶ¼ëĵľ": 6567,
      "ìĿ¼ìľ¼íĤ¤": 6568,
      "ìĹħìĨĮ": 6569,
      "ìĽĮëĵľ": 6570,
      "ëĿ¼êµ¬": 6571,
      "ëĵ¤ìĹĪìĸ´": 6572,
      "ìĹĪëĭ¤ê³ł": 6573,
      "ëĮĢê°Ģ": 6574,
      "ìĹ¬ìŃ¤": 6575,
      "íļĮê´Ģ": 6576,
      "íĭ°ëª¬": 6577,
      "ëıĦì¤ĳ": 6578,
      "íĮĮìĿ¸": 6579,
      "íĿĶíŀĪ": 6580,
      "ë²ļê½ĥ": 6581,
      "ëĭ¤ë£¨": 6582,
      "ë°±ìĿ¼": 6583,
      "ìĹŃìĦ¸": 6584,
      "ìłģìĸ´ëıĦ": 6585,
      "íĢ¸": 6586,
      "ì´ĪìłĢê°Ģ": 6587,
      "ìŀħì¦Ŀ": 6588,
      "ìŀ¡ê¸°": 6589,
      "ìĹĶíĦ°íħĮìĿ¸ë¨¼íĬ¸": 6590,
      "ìłĢíŀĪ": 6591,
      "ì§ģíĽĦ": 6592,
      "ëıĦë¦¬": 6593,
      "íĴĪê²©": 6594,
      "ìĬ¬ë¦¬": 6595,
      "ìłĳì´ī": 6596,
      "ìĭľìĿ¸": 6597,
      "íĹĪëĿ½": 6598,
      "ing": 6599,
      "íĮ¨ë°Ģë¦¬": 6600,
      "ë¶Ħíķł": 6601,
      "ìĬ¤ëĭĺ": 6602,
      "ìĭľë²Ķ": 6603,
      "ë°ĽëĬĶëĭ¤": 6604,
      "ì§ĢëĤĺë©´": 6605,
      "ëĦ¤ëĦ¤": 6606,
      "ì§Ģë£¨": 6607,
      "ìĹĲì½Ķ": 6608,
      "ìĥģê¶Į": 6609,
      "íĻĺìĥģ": 6610,
      "íĪ¬ìĹ¬": 6611,
      "ì°¾ìĿĢ": 6612,
      "ëģĿëĤ´": 6613,
      "íĹĿ": 6614,
      "ìļ°ëŁ¬": 6615,
      "ê·¸ëłĩëĭ¤": 6616,
      "íĶ¼ê³ł": 6617,
      "ìłĦë¬¸ìĿĺ": 6618,
      "ë¶ģë¶Ģ": 6619,
      "ëĬĺëł¤": 6620,
      "ìĬ¤ì½Ķ": 6621,
      "íĥĳìĬ¹": 6622,
      "ëĬĦ": 6623,
      "ë¿Įëł¤": 6624,
      "íĮĲìłķ": 6625,
      "ë°ľìĤ¬": 6626,
      "ê¸ģ": 6627,
      "ë©Īì¶Ķ": 6628,
      "ìĪĺê±°": 6629,
      "ë²³": 6630,
      "ëĬĲê»´ì§ĢëĬĶ": 6631,
      "ìĥīê°Ĳ": 6632,
      "ìłĲìľł": 6633,
      "ê·¸ëŀľëĵľ": 6634,
      "ìĥĿìĦł": 6635,
      "ë¨¹ìĸ´ìĦľ": 6636,
      "ê°Ģì§Ī": 6637,
      "ìķĮëł¤ì§Ħ": 6638,
      "ë§Ĳíķĺê¸°": 6639,
      "ëłĪìĿ´ìħĺ": 6640,
      "ëģĿëĤĺ": 6641,
      "ìĻ¸ëª¨": 6642,
      "ë»ĺ": 6643,
      "ê°Ħëĭ¨íŀĪ": 6644,
      "íı¬ëŁ¼": 6645,
      "ìĿ½ëĬĶ": 6646,
      "íĥľíĴį": 6647,
      "ìķĦíĶĦë¦¬ì¹´": 6648,
      "ë³´ìĭľê¸°": 6649,
      "ìĸ´ëłµëĭ¤": 6650,
      "ìĸ´ì°ĮëĤĺ": 6651,
      "ìĿ´ëłĩ": 6652,
      "ìķĮìķĦë³´ê³ł": 6653,
      "ìĦłëıĦ": 6654,
      "ì·¨ìŀ¬": 6655,
      "ìŀ¥ê°ĳ": 6656,
      "ìłĢíķŃ": 6657,
      "ì¿¤": 6658,
      "ìĤ½ëĭĪëĭ¤": 6659,
      "ìŀ¡ì§Ģ": 6660,
      "ìĸĳíĺ¸": 6661,
      "ì¶Ķìļ´": 6662,
      "ëĤ´ìĭł": 6663,
      "íĺ¼ëŀĢ": 6664,
      "íĻĢë¡ľ": 6665,
      "ê°Ħì§Ģ": 6666,
      "ìĪį": 6667,
      "ëģĿëĤ¬": 6668,
      "ê¶Įìŀ¥": 6669,
      "ì°Ĳ": 6670,
      "ìķĦëĭĪëĥĲ": 6671,
      "ë§¤ëĭĪìķĦ": 6672,
      "ì¢ĭìķĺëĭ¤": 6673,
      "ê¶ģê¸Īíķ©ëĭĪëĭ¤": 6674,
      "ë¯¸ê°ľë´ī": 6675,
      "ìĬ¤íĨ¤": 6676,
      "íķĺëĬĲëĿ¼": 6677,
      "ìĹĲëĵĢ": 6678,
      "íķľëĤĺëĿ¼": 6679,
      "ì´ĿìĦł": 6680,
      "ë°°íı¬": 6681,
      "ìĥģìĨį": 6682,
      "ëĭµë¡Ģ": 6683,
      "íģ´ë¡ľ": 6684,
      "ìĨĮìĽĲ": 6685,
      "ëª¨ë¥¸ëĭ¤": 6686,
      "ëħ¸ìĬ¤": 6687,
      "ì¦Ĳê±°ìĽĢ": 6688,
      "ìĺ¤ìħ¨": 6689,
      "ìĬ¤ëĥħ": 6690,
      "íĽĶ": 6691,
      "íĮĮëĿ¼": 6692,
      "íĳľì§Ģ": 6693,
      "ìŀħëĭĪëĭ¹": 6694,
      "ì£¼ê°Ħ": 6695,
      "ì§ĢìĽĮ": 6696,
      "íıīìĸĳ": 6697,
      "ìķ¼ëĭ¹": 6698,
      "ìĭ¬íķĺê²Į": 6699,
      "ìĦľë¯¼": 6700,
      "ë§ŀëĤĺ": 6701,
      "ìĹ´ë§¤": 6702,
      "ë³¸ì²´": 6703,
      "ê²ľ": 6704,
      "ìĺ¤ëŀ«ëıĻìķĪ": 6705,
      "ê¸īíķĺê²Į": 6706,
      "ìĦ±ê²½": 6707,
      "ìĤ¬íĽĦ": 6708,
      "ìĭ¤ìļ©": 6709,
      "ê°ĪìĪĺë¡Ŀ": 6710,
      "ê·¸ë¦¬ìĬ¤ëıĦ": 6711,
      "ë¨¸ë¬¼": 6712,
      "ëĨįì´Į": 6713,
      "ë½ĳìķĦ": 6714,
      "ìĭľìľĦ": 6715,
      "ac": 6716,
      "ìĿ´ë§Į": 6717,
      "ìķĪë°©": 6718,
      "ê°ķì¶Ķ": 6719,
      "ìĦ¸ë¯¸ëĤĺ": 6720,
      "ì£½ìĸ´": 6721,
      "ëĤ´ë©°": 6722,
      "ìº¡ì³Ĳ": 6723,
      "ìĨĮì§Ģ": 6724,
      "íĺĪê´Ģ": 6725,
      "ìĬ¤íĮħ": 6726,
      "ìºłíį¼ìĬ¤": 6727,
      "ëĭ´ê³ł": 6728,
      "ì£¼ë¨¸ëĭĪ": 6729,
      "ìłĢê²©": 6730,
      "ê°Īê¹Į": 6731,
      "ìµľê°ķ": 6732,
      "ìķĮìķĺìĸ´": 6733,
      "ëĦĺìĸ´ìĦľ": 6734,
      "ëĨĵìĿĦ": 6735,
      "ìľłìŀħ": 6736,
      "íĽĹ": 6737,
      "êºĦ": 6738,
      "íĮ¨ì¹ĺ": 6739,
      "ì°½ìŀĳ": 6740,
      "íĥĢê²©": 6741,
      "ê°Ļëĭ¤ê³ł": 6742,
      "ìĬ¤íĥĢíĬ¸": 6743,
      "ëĳĲê·¼": 6744,
      "ê¶Įíķľ": 6745,
      "ìŀĲìĤ´": 6746,
      "ìĭ¬ê°ģíķľ": 6747,
      "ë¦¬íĦ°": 6748,
      "ëĦĽ": 6749,
      "ì¼Ī": 6750,
      "íķĺëįĶëĿ¼ê³ł": 6751,
      "ì½ĶìĬ¤ëĭ¥": 6752,
      "íķĺëĿ¼ëĬĶ": 6753,
      "íĬ¸ëŁ¬": 6754,
      "ê°ĢëĵĿíķľ": 6755,
      "ìķĦìĿ¼ëŀľëĵľ": 6756,
      "ìłĢíĬ¸": 6757,
      "íģ¬ëłĪ": 6758,
      "ìłķê·ľì§ģ": 6759,
      "ë§İìĿĦ": 6760,
      "ìĭ±ê°Ģ": 6761,
      "ë¹¨ëŀĺ": 6762,
      "ê°ķíķĺê²Į": 6763,
      "ìķĦìļ¸ëłĽ": 6764,
      "ìĿ´ë§ĪíĬ¸": 6765,
      "íĪ°": 6766,
      "ë¦¬ë³¸": 6767,
      "ê±·ê¸°": 6768,
      "ë§ĪìĿ¼": 6769,
      "ìĸĮ": 6770,
      "ë§Īíı¬": 6771,
      "ìłģìłĪíķľ": 6772,
      "ì¶ĶíĽĦ": 6773,
      "ì§Ģë¶Ī": 6774,
      "ëĲĺìĭ¤": 6775,
      "ê¹¡": 6776,
      "ì¹ľëĭ¤": 6777,
      "ê·¼ë³¸": 6778,
      "ìĤ¼ê²¹ìĤ´": 6779,
      "ìļ°ìĤ°": 6780,
      "ì¢ĭëįĶëĿ¼êµ¬": 6781,
      "ê³¼ìĦ¸": 6782,
      "ìĤ¬ìļ´ëĵľ": 6783,
      "ëĭ¤ìĿĮëĭ¬": 6784,
      "íķ´ë³Ģ": 6785,
      "tv": 6786,
      "50": 6787,
      "íķ´ìļ´ëĮĢ": 6788,
      "ëĤĺê°Ģê³ł": 6789,
      "íİĺìĬ¤íĭ°": 6790,
      "ìĿ¼ìłľ": 6791,
      "ê¶ģê¸Īíķĺìĭł": 6792,
      "ìĦĿìľł": 6793,
      "ë¸ĮëĿ¼ì§Ī": 6794,
      "ìĺ¤ìĭľë©´": 6795,
      "ìĨĮëĭĪ": 6796,
      "ìĽĲíĻľ": 6797,
      "ë³Ħëªħ": 6798,
      "ìĻģ": 6799,
      "ëľ¸": 6800,
      "ëħ¸ë¬´": 6801,
      "ì²Ļì¶Ķ": 6802,
      "ê´ĢìłĲ": 6803,
      "êµ¬ëĭ¨": 6804,
      "ìłģíĺĢ": 6805,
      "ìĭłíĻĶ": 6806,
      "ë§İìķĺ": 6807,
      "ìĺ¬ëł¸ëĭ¤": 6808,
      "ì§ĳê³Ħ": 6809,
      "ëĤ¨ì¹ľ": 6810,
      "ë³´ìľ¡": 6811,
      "ìķłê²¬": 6812,
      "ê°ĢëĶĶ": 6813,
      "ê·¸ëŁ¬ë¯Ģë¡ľ": 6814,
      "ìĿ´ì¹ĺ": 6815,
      "íı¬ì§Ģ": 6816,
      "íķ´ìķĪ": 6817,
      "ê°Ĳìĭľ": 6818,
      "ì¢ĭìĿĦê¹Į": 6819,
      "ëĵ¤ìĸ´ìĺ¤ëĬĶ": 6820,
      "ì¤ĳíķĻ": 6821,
      "êµ°ìĪĺ": 6822,
      "ìĸ´ëł¤ìļ¸": 6823,
      "ìŀ¬íĻľ": 6824,
      "ë´ħ": 6825,
      "ê±´ìĿĺ": 6826,
      "ê°ľìĨĮ": 6827,
      "ìķĦë©Ķë¦¬ì¹´": 6828,
      "ìĿ´ê²¨": 6829,
      "ìĸ´ìĥī": 6830,
      "ê²Ģì§Ħ": 6831,
      "ì¢ĭìķĦíķ´ìĦľ": 6832,
      "ë§ĽëĤľ": 6833,
      "ëĺĳê°ĻìĿ´": 6834,
      "ëĤĺíĥĢëĤĺ": 6835,
      "ë§İìķĺëĭ¤": 6836,
      "ìĨĮìķĦ": 6837,
      "ë°ľíļ¨": 6838,
      "ê±°ëĭĪ": 6839,
      "ìłģëĭ¹íķľì§Ģ": 6840,
      "ëĤľìĿ´": 6841,
      "ë§ĳìĿĢ": 6842,
      "ìĹĲê²ĮìĦľ": 6843,
      "ìĤ¬ë©´": 6844,
      "ìĺ¤ìĭľëĬĶ": 6845,
      "ì½ĶìĬ¤íĶ¼": 6846,
      "ëĵ¤ìĸ´ê°Ģë©´": 6847,
      "ìĨĮíĮĮ": 6848,
      "ìĽĶê¸ī": 6849,
      "ë°ķìĪĺ": 6850,
      "ëħ¼ë¬¸": 6851,
      "ëĭ¨ëĭ¨": 6852,
      "íĬ¸ëŁŃ": 6853,
      "ë¶Īë¦¬ëĬĶ": 6854,
      "ìĹĲìĦľë¶ĢíĦ°": 6855,
      "ê°ĢëĭĪ": 6856,
      "ëĭ¹ë¶Ħ": 6857,
      "ê±°ë¦¬ëĬĶ": 6858,
      "ìĦ¤ëłĪ": 6859,
      "ìĺĪìĿĺ": 6860,
      "ê³µìķ½": 6861,
      "ê±°ì¹ĺ": 6862,
      "ìķłë§¤": 6863,
      "ìĿ´ëĿ¼ëĭĪ": 6864,
      "ì§Ģíľĺ": 6865,
      "íĨłëĦĪ": 6866,
      "ìĿ¸ë¶Ħ": 6867,
      "íķĦê¸°": 6868,
      "ì§ļ": 6869,
      "ë¬¼ê³łê¸°": 6870,
      "ìĬ¤íħĶ": 6871,
      "ìĸ´ëĶĺ": 6872,
      "ìľłíķ´": 6873,
      "ìĭłíĴĪ": 6874,
      "ì¡´ì¤ĳ": 6875,
      "ìķķëıĦ": 6876,
      "ìĪĺíĹĺ": 6877,
      "ë¨¹ìĿĮ": 6878,
      "ìĤ¬ìŀĲ": 6879,
      "ëĶĶìłĢíĬ¸": 6880,
      "ìĿ´ëıĦ": 6881,
      "ë¯¹ìĬ¤": 6882,
      "ëĶĶìĬ¤íĶĮëłĪìĿ´": 6883,
      "ìĿ´ëģĮ": 6884,
      "íĬ¹ë³ĦíŀĪ": 6885,
      "ë°Ķëĭ·": 6886,
      "ëĳĲíĶ¼": 6887,
      "ëĮĢìķĪ": 6888,
      "íķĺìĭłëĭ¤ë©´": 6889,
      "ëĤĺëĵ¤ìĿ´": 6890,
      "ë¸Ķë¡ľ": 6891,
      "ëĤĺìĻĶìĸ´": 6892,
      "ê·¸ìª½": 6893,
      "ìĪĻìłľ": 6894,
      "íĹĪíĹĪ": 6895,
      "íĽ¼ìĨĲ": 6896,
      "êµµ": 6897,
      "ì§Ħë¦¬": 6898,
      "ì¤ĳëıĻ": 6899,
      "ìĿ´ìĭĿ": 6900,
      "ìłĦëıĻ": 6901,
      "ê°Ħìłĳ": 6902,
      "ì¤Įë§Ī": 6903,
      "ìĺģìŀħ": 6904,
      "ìĹĨì£ł": 6905,
      "ìĦ±ëĭ¹": 6906,
      "ì§ĢìĦ±": 6907,
      "ìĭłìĤ¬": 6908,
      "ìĳ¤": 6909,
      "ë¨¹ìĹĪëĬĶëį°": 6910,
      "ìĺģë¬¸": 6911,
      "ë³´ìħ¨": 6912,
      "ìłľë²ķ": 6913,
      "ìĨŁ": 6914,
      "ìĺĪê¸Ī": 6915,
      "ë¿ľ": 6916,
      "ìĿ´ìĹĪê³ł": 6917,
      "ìĭĿëĭ¨": 6918,
      "ìĦłë¶Ī": 6919,
      "ë°°ìĽĮ": 6920,
      "ëĭ¨ëĭ¤": 6921,
      "ìĭľì¤ĳ": 6922,
      "ìŀ¬ì§Ī": 6923,
      "ê¹Įì§ĢìĿĺ": 6924,
      "ë°ĺíĮĶ": 6925,
      "ìĸµìłľ": 6926,
      "ì¹µ": 6927,
      "ë°ľìĿĮ": 6928,
      "íķĺìĭľêµ¬": 6929,
      "ë°ĶëĤĺëĤĺ": 6930,
      "íĮĲìĤ¬": 6931,
      "ëį°ë¯¸ì§Ģ": 6932,
      "ìķĪíĥĢê¹Į": 6933,
      "ëĭ¤ìļ´ë¡ľëĵľ": 6934,
      "ìĦľë¶Ģ": 6935,
      "ìķ½ë¬¼": 6936,
      "ì¡°ìķĦ": 6937,
      "íģ´ë¦¬ìĸ´": 6938,
      "ìĦ¸ì§Ģ": 6939,
      "ëª¨ë¥¸": 6940,
      "ì¹¼ëĿ¼": 6941,
      "ìĪĺì£¼": 6942,
      "ëĦ¤íĭ°": 6943,
      "ë°Ķêµ¬ëĭĪ": 6944,
      "ëĶĶíħĮìĿ¼": 6945,
      "ëł¸ìĸ´": 6946,
      "íĶĮëŀĢíĬ¸": 6947,
      "íķ©ë¥ĺ": 6948,
      "ìĨĮëª¨": 6949,
      "ëĵľë¡ł": 6950,
      "ìĽħì§Ħ": 6951,
      "ëªĩëªĩ": 6952,
      "ëĵ¤ìĸ´ìĻĢ": 6953,
      "íĻĶìļĶìĿ¼": 6954,
      "ìŀ¬ëĬ¥": 6955,
      "ìĹĲìĦ¼ìĬ¤": 6956,
      "ë§Ŀê³ł": 6957,
      "ë¿į": 6958,
      "ê·¸ë¦´": 6959,
      "êµ°ìĤ°": 6960,
      "ìŀħìłĲ": 6961,
      "ìĤ´íİ´ë³´ë©´": 6962,
      "ìĬ¤ëŁ½ê³ł": 6963,
      "ìķħê¸°": 6964,
      "ê°Ģìĭ¤": 6965,
      "ìĦ¸ì°¨": 6966,
      "ìĿ´ì²ľ": 6967,
      "ìłĲíı¬": 6968,
      "ê¸°ìŀħ": 6969,
      "ìľ¼ë¡ľìĿĺ": 6970,
      "ì¢ĭêµ¬": 6971,
      "ëĬĳ": 6972,
      "ê°ľìŀħ": 6973,
      "íĶĮë¡ľ": 6974,
      "ìķĪìĦ±": 6975,
      "ì¶Ķì²¨": 6976,
      "ìĹ°ë£Į": 6977,
      "ë²łìĿ´íĦ°": 6978,
      "ë§Īëĥ¥": 6979,
      "ì´Īì½ľë¦¿": 6980,
      "ëĦ´": 6981,
      "íĬ¸ìľĦíĦ°": 6982,
      "ê¶Ī": 6983,
      "ì£¼ëĬĶëį°": 6984,
      "ìĪĺëĭ¹": 6985,
      "ìĿ¼íķĺëĬĶ": 6986,
      "ì¹ĺìľł": 6987,
      "ë¦¬ëĤĺ": 6988,
      "ìĹīëį©ìĿ´": 6989,
      "ë³´ìłķ": 6990,
      "ê¶ģê¸ĪíķĺìĦ¸ìļĶ": 6991,
      "ë°©ìĹŃ": 6992,
      "ë¦´ëłĪìĿ´": 6993,
      "ì±Ĺ": 6994,
      "ìĺĪìĭľ": 6995,
      "ìĸ´ì¨Įëĵł": 6996,
      "ìłķíķ´": 6997,
      "ëį°ìĬ¤": 6998,
      "ëĤ¨ìķĺ": 6999,
      "ì°¾ìķĦìĦľ": 7000,
      "ì²ľìŀ¬": 7001,
      "ê°Ļê¸°": 7002,
      "ê³Ħìķ½ìĦľ": 7003,
      "40": 7004,
      "ì°įìĸ´ìĦľ": 7005,
      "ì°¨ì°¨": 7006,
      "ìĿ¸ìĦ±": 7007,
      "ìĨĮëĵľ": 7008,
      "ìĺ¤ìĭľ": 7009,
      "ê»įì§Ī": 7010,
      "ìĿ´ìĬ¬": 7011,
      "ë¶Ģë¥´ëĬĶ": 7012,
      "íŀĪíĬ¸": 7013,
      "ëł¸ìĿĦ": 7014,
      "ìĹ¬ì£¼": 7015,
      "ê°ľê·¸": 7016,
      "ëł¸ìĬµëĭĪëĭ¤": 7017,
      "ìĿ´ëł¥": 7018,
      "ì§Ģì£¼": 7019,
      "ë³´ìĹ¬ìĦľ": 7020,
      "ìķłì´Ī": 7021,
      "ìĿ¼ë¶ĢëŁ¬": 7022,
      "ë¸ĶëĿ¼ìļ°ìĬ¤": 7023,
      "ìĿ´ê¸Ģ": 7024,
      "íķĺìĪĺêµ¬": 7025,
      "ì£¼ì²´": 7026,
      "ë¶Ģê·¼": 7027,
      "ìłĦë°ĺìłģ": 7028,
      "ìłķì°©": 7029,
      "ìľ½": 7030,
      "ëĺĳëĺĳ": 7031,
      "íķľë¯¸": 7032,
      "ëĤ´ê³µ": 7033,
      "ìĪľì²ľ": 7034,
      "ìŀ¡ìķĺëĭ¤": 7035,
      "ë¬»ëĬĶ": 7036,
      "ì¤ĳë°ĺ": 7037,
      "ëĿ¼ë²¨": 7038,
      "ìĽĮíĤ¹": 7039,
      "ìĺĢì§Ģë§Į": 7040,
      "ë²łìĸ´": 7041,
      "íĺĪìķķ": 7042,
      "íı¬ìĬ¤íĦ°": 7043,
      "ì¢ĭê²ł": 7044,
      "íĻķìĭł": 7045,
      "íĨłëĮĢ": 7046,
      "íĤ¤ìļ°ëĬĶ": 7047,
      "ì´ĪìłĲ": 7048,
      "ì§ĪëŁ¬": 7049,
      "ëĬĲê¼Ī": 7050,
      "ëĤ´ë¦¬ëĬĶ": 7051,
      "ìĭŃìĭľìļĶ": 7052,
      "cpu": 7053,
      "ìŀħëĭĪê¹Į": 7054,
      "ë°°ìļ°ê³ł": 7055,
      "ìĹĮ": 7056,
      "íıīì°½": 7057,
      "íĨ¡íĨ¡": 7058,
      "ê¸°ì¶ľ": 7059,
      "ëªħìĤ¬": 7060,
      "ì°įìĿĦ": 7061,
      "ìĿ´ì£¼": 7062,
      "íŀĻ": 7063,
      "ê°ķìĹ°": 7064,
      "ë³´ëĤ´ìĦ¸ìļĶ": 7065,
      "wi": 7066,
      "ìķĦëĭĮì§Ģ": 7067,
      "ëª«": 7068,
      "íķľëĤĺëĿ¼ëĭ¹": 7069,
      "ìĹ¼ì¦Ŀ": 7070,
      "íİĺìĬ¤íĭ°ë²Į": 7071,
      "ìĪĺê±´": 7072,
      "ëĨįìĤ°": 7073,
      "ëª©ìĪ¨": 7074,
      "ìĭľíĤ¤ê¸°": 7075,
      "ë°ĺë°ľ": 7076,
      "ëħ¹ìĿĮ": 7077,
      "ê°ļ": 7078,
      "ëĭ¹ëĩ¨": 7079,
      "do": 7080,
      "ìĺ¬ë°Ķë¥¸": 7081,
      "êµĲê³¼ìĦľ": 7082,
      "ìĿ¸ëĶĶ": 7083,
      "ëłĪìĿ´ëĵľ": 7084,
      "ìĦ¸íĮħ": 7085,
      "ìłĳìĸ´": 7086,
      "íĭĢìĸ´": 7087,
      "ë´Ĳìķ¼ê²łìĸ´": 7088,
      "ìĬ¤íĭ¸": 7089,
      "ìĿ´ìĹĲ": 7090,
      "ê³µì§ľ": 7091,
      "ì»¤ëĭ¤ëŀĢ": 7092,
      "ëĵ¤ìĸ´ìĺ¨": 7093,
      "ì¡°ëĭ¬": 7094,
      "ìŀĳê³¡": 7095,
      "íĻĶìĥģ": 7096,
      "íĸ¥íķľ": 7097,
      "ê·ľìĸ´": 7098,
      "ë§ŀìĬµëĭĪëĭ¤": 7099,
      "ë§ĪìĬ¤": 7100,
      "ìŀħêµŃ": 7101,
      "ìľłì¶ľ": 7102,
      "ìłĦëĭ´": 7103,
      "ìłľìĸ´": 7104,
      "ëĭ¹ì´Ī": 7105,
      "ì§ĢëĤľë²Ī": 7106,
      "ë¶ĦíĻį": 7107,
      "ëĵľë¦¬ë©°": 7108,
      "ìĺ¤ìĤ¬ì¹´": 7109,
      "ë¨¸ìĭł": 7110,
      "ë¥µ": 7111,
      "ìķĦëģ¼": 7112,
      "ìľłëıĻ": 7113,
      "ë²Įê¸Ī": 7114,
      "ëĭ¨ìŀ¥": 7115,
      "ìĥģìĤ¬": 7116,
      "íĥĳìŀ¬": 7117,
      "ë°ĺìłĦ": 7118,
      "íķ©ë³ĳ": 7119,
      "ì£¼ë©´ìĦľ": 7120,
      "ê³łëł¹": 7121,
      "ëĨįêµ¬": 7122,
      "ë°Ķê¿Ģ": 7123,
      "ê°Ļìķĺëĭ¤": 7124,
      "ìĺ¤ëĶĶìĺ¤": 7125,
      "ì¢ĭìĿĮ": 7126,
      "ë¯¸ìĤ¬ìĿ¼": 7127,
      "ìĿĮì£¼": 7128,
      "ìľłíļ¨": 7129,
      "ë§īìķĦ": 7130,
      "ìļ©ìĿ´": 7131,
      "ìĥĿìĥĿ": 7132,
      "ìļ¥": 7133,
      "ë¹Ħë¹Ķ": 7134,
      "íĸĪìľ¼ëĭĪ": 7135,
      "ë°ĿíŀĮ": 7136,
      "ìĤ¬ìĹ°": 7137,
      "ê¹ħ": 7138,
      "ìķĦìĬ¤": 7139,
      "ì¤¬ìĸ´": 7140,
      "ìĦ¸ë¡ľ": 7141,
      "ìŀĦì§ģìĽĲ": 7142,
      "ê¸īëĵ±": 7143,
      "ëĵľëĿ¼ìĿ´ë¸Į": 7144,
      "ì§Ħíķľ": 7145,
      "ìĻ¸ìĭĿ": 7146,
      "ìľµíķ©": 7147,
      "ì¶ľë²Ķ": 7148,
      "ëĪĦìĪĺ": 7149,
      "ì£¼ë¬´": 7150,
      "ìłģìłķ": 7151,
      "ë°Ķê¹": 7152,
      "ëŁ¿": 7153,
      "ìĺģêµ¬": 7154,
      "ë¡ľìĿ´": 7155,
      "ëłĪìĿ´ìĬ¤": 7156,
      "ëĵľë¦½": 7157,
      "íĤ¤ë³´ëĵľ": 7158,
      "ìķĦìĿ´ëıĮ": 7159,
      "ëĲĲìĸ´": 7160,
      "ëĭ¤íķ´": 7161,
      "ë³ĢìĪĺ": 7162,
      "ì§Ģë©°": 7163,
      "ê°Ħë§Į": 7164,
      "ëģĬìŀĦ": 7165,
      "íķĺëĭ¤ë©´": 7166,
      "ëĤ´ìĦľ": 7167,
      "íģ¬ë£¨ì¦Ī": 7168,
      "ìĬ¤ëłĪ": 7169,
      "ìļ©ìĸ´": 7170,
      "ìĹ°ê´Ģ": 7171,
      "ê°Ģìł¸ëĭ¤": 7172,
      "ì¤ĳìłĲ": 7173,
      "ìłķëª¨": 7174,
      "ëĭ¤ë¥´ëĭ¤": 7175,
      "ëĤ®ìķĦ": 7176,
      "ìĭłì´Į": 7177,
      "íĥĦíĥĦ": 7178,
      "ë»Ĺ": 7179,
      "ìĹ°ë§¹": 7180,
      "ëĵ¤ìĹĪìĬµëĭĪëĭ¤": 7181,
      "íķĺëıĦ": 7182,
      "ìĿ´ëĭĿ": 7183,
      "íį¼ìĬ¤íĬ¸": 7184,
      "íĥĢìĿ¼": 7185,
      "ì§ĢëĤ¬": 7186,
      "ìĹ¬ìĿ¸": 7187,
      "ëª¨ë¥´ì§Ģë§Į": 7188,
      "ìłĦìĤ¬": 7189,
      "ë°°ìłķ": 7190,
      "íį¼ëĭĪ": 7191,
      "ìĭľíĿ¥": 7192,
      "ë³´ì¡´": 7193,
      "ne": 7194,
      "íĻĶì§Ī": 7195,
      "ìĦłëĳĲ": 7196,
      "ìķĦì¿ł": 7197,
      "ë°Ķê¹¥": 7198,
      "ìĥĢëĬĶëį°": 7199,
      "ê¸°ìģĺ": 7200,
      "íĸĪê±°ëĵł": 7201,
      "ëıĻíĥĦ": 7202,
      "ìĹĨëĭ¤ë©´": 7203,
      "íķĺíķĺíķĺ": 7204,
      "ëªħì¹Ń": 7205,
      "ë³¼ê»ĺ": 7206,
      "ë²ħìĬ¤": 7207,
      "ëĿ¼ìĬ¤íĭ±": 7208,
      "íĶ¼íĦ°íĮ¬": 7209,
      "ëĤĺìĿ´íĬ¸": 7210,
      "ëĮĢíıŃ": 7211,
      "ê·¸ê°Ħ": 7212,
      "ìĿ¸íĦ°íĮĮíģ¬": 7213,
      "ëĨĴìĹ¬": 7214,
      "ë°ľëª©": 7215,
      "ë§Īì¹ľ": 7216,
      "ëĪĪë¹Ľ": 7217,
      "ë¶ĢíĻľ": 7218,
      "ê°Ģëĵł": 7219,
      "ë°ĭ": 7220,
      "áĦ": 7221,
      "ìĿ´ì¦Ī": 7222,
      "ëĦ¤íĭ°ì¦Į": 7223,
      "ìĭ±íģ¬ëĮĢ": 7224,
      "ì¢ĭì§Ģë§Į": 7225,
      "ìĬ¤íĥŃ": 7226,
      "ê°ĢëĤĺ": 7227,
      "ìŀħìĤ¬": 7228,
      "ì°¨ìĿ´ì¦Ī": 7229,
      "ìķĦëª¨": 7230,
      "ha": 7231,
      "ë°ĽìĬµëĭĪëĭ¤": 7232,
      "ë¨¸ìĬ¤": 7233,
      "ëĵ¬ë¿į": 7234,
      "ëª¸ë¬´ê²Į": 7235,
      "ìļ°ìĹ°íŀĪ": 7236,
      "ìŀĲê¶ģ": 7237,
      "ëĬĲëģ¼ê³ł": 7238,
      "ìķĪëĭ¤": 7239,
      "ìĭľìĽĲíķĺê²Į": 7240,
      "ë³ĳíĸī": 7241,
      "ë°ĺìĦ±": 7242,
      "ë³´ìĿ´ë©°": 7243,
      "ëĤĺê°ĢìĦľ": 7244,
      "ê±´ë¦½": 7245,
      "ìĨĮíĶĦíĬ¸ìĽ¨ìĸ´": 7246,
      "ìļ°ìķĦ": 7247,
      "ìĭľë¹Ħ": 7248,
      "ì¶©ìĭ¤": 7249,
      "íģĲë¸Į": 7250,
      "ê°Ħíİ¸íķĺê²Į": 7251,
      "ì§ĳíļĮ": 7252,
      "ëıĦìļ°ë¯¸": 7253,
      "ëĵľëĿ¼ìĿ´ë²Ħ": 7254,
      "ëıĻêµ¬": 7255,
      "ê¸Īíĺ¸": 7256,
      "ëĥ¥ìĿ´": 7257,
      "ìĹ¬ê¶Į": 7258,
      "íŀĪì§Ģ": 7259,
      "ë©ķ": 7260,
      "ìĨĮíķľ": 7261,
      "ì»¨íĬ¸ë¡¤": 7262,
      "ê¹¨ëģĹíķĺê²Į": 7263,
      "ìĤ¼ê°ģ": 7264,
      "ìĨ¥": 7265,
      "íķ¸ëĵ¤": 7266,
      "ë¦¬íĶĦ": 7267,
      "ìĻ¸ìĦł": 7268,
      "ì¶©ì¡±": 7269,
      "íĬľëĭĿ": 7270,
      "ëĨĢìŀĲ": 7271,
      "ìĨ¡ëıĦ": 7272,
      "ìĹĺì§Ģ": 7273,
      "ìħĭì§¸": 7274,
      "ìĭľíģ¬ë¦¿": 7275,
      "ì£¼ë¨¹": 7276,
      "ìĶĮ": 7277,
      "íķľì¸µ": 7278,
      "ëĲĺê¸¸": 7279,
      "ìĸ»ìĿĢ": 7280,
      "ì²ľì§Ģ": 7281,
      "ìĪĺìĭŃ": 7282,
      "ê¹ĢëıĻ": 7283,
      "ëĿ¼ìĹĺ": 7284,
      "ëĭ¨ìĿ¼": 7285,
      "ê·¸ë¦½": 7286,
      "ë¶Ģìĭ¤": 7287,
      "ê²Ķ": 7288,
      "ë´£": 7289,
      "ëĭ¹ë¶Ħê°Ħ": 7290,
      "ì¹¨íķ´": 7291,
      "ëłīìħĺ": 7292,
      "ìķĪíĥĢê¹Ŀ": 7293,
      "ìĺ¤ë°Ķ": 7294,
      "ti": 7295,
      "ì·¨ìŀĦ": 7296,
      "ìĿ´ìĺģ": 7297,
      "ìĬ¤ì»¤íĬ¸": 7298,
      "ìĸ¹": 7299,
      "ëĬĺìĸ´ëĤľ": 7300,
      "ëĭ¹ëĭ¹": 7301,
      "ìĿ´êµ°": 7302,
      "ê¼¬ë§Ī": 7303,
      "ê¹Ģë¯¼": 7304,
      "ëª¨ëįĺ": 7305,
      "ìĥģë¬´": 7306,
      "ìĭłìŀ¥": 7307,
      "ë¶ĪêµĲ": 7308,
      "ìĦ¸ìĬ¤": 7309,
      "ë¬´ìĦľìļ´": 7310,
      "ìłķìŀ¥": 7311,
      "ìĺ¨ì²ľ": 7312,
      "ìļĶê·¸ëŁ¼": 7313,
      "íħĮëĿ¼": 7314,
      "ìĤ¬ìĿ¸": 7315,
      "ìĤ¼ìķĦ": 7316,
      "ìĸ´ëĬĲìĥĪ": 7317,
      "ìļĶìķ½": 7318,
      "ìĭ¸ê³ł": 7319,
      "íĨłë¡Ŀ": 7320,
      "ìĻ¸íĻĺ": 7321,
      "ìłĪë¡ľ": 7322,
      "ê·¸ëŁ¬íķľ": 7323,
      "ìĹ¬ê²¨": 7324,
      "ìļĶëŁ°": 7325,
      "íĳ¸ì§Ĳ": 7326,
      "ë½Ĳ": 7327,
      "íķĺê¸¸": 7328,
      "ëĦ£ìĿĢ": 7329,
      "ìļĶë¯¸": 7330,
      "ìľłë¬´": 7331,
      "pcë°©": 7332,
      "ê¸īìĭĿ": 7333,
      "ìļ¸ê³ł": 7334,
      "ë¯¸ì¹ĺëĬĶ": 7335,
      "ìĺ¤ìĬ¤": 7336,
      "íı¬ìĬ¤ì½Ķ": 7337,
      "ìłķíĻĶ": 7338,
      "ìĿ¼ì¹ĺ": 7339,
      "ë°Ľìķĺìĸ´": 7340,
      "ê¸¸ìĸ´": 7341,
      "ìľłìĹ°": 7342,
      "íĮĶê³ł": 7343,
      "ìĹ´ìĩł": 7344,
      "íķĺëĤ¨": 7345,
      "íĸĪëĭ¤ë©´": 7346,
      "ë§ŀìĿĦ": 7347,
      "ìļĶíķľ": 7348,
      "ìĽłìĬµëĭĪëĭ¤": 7349,
      "ëª°ìķĦ": 7350,
      "ìĿ´ìĸ´íı°": 7351,
      "ëĳĲëĬĶ": 7352,
      "ìŀĩìĸ´": 7353,
      "ë§¤ìĽĶ": 7354,
      "íķĺìĭľëĬĶëį°": 7355,
      "ëª°ëŀĺ": 7356,
      "ë§Īì¹´": 7357,
      "ê°Ŀìĭ¤": 7358,
      "ëįĶíķ´": 7359,
      "ì§Ħë³´": 7360,
      "íĥŃ": 7361,
      "ê³łë§ĻìĬµëĭĪëĭ¤": 7362,
      "ìĿ´ëĶ°": 7363,
      "ë§īìĿ´": 7364,
      "ëłĪìĺ¤": 7365,
      "ëĮĢë©´": 7366,
      "ê°ķìĦ¸": 7367,
      "ìħĢì¹´": 7368,
      "ê¹¨ëĭ¬": 7369,
      "íĻĶë¶Ħ": 7370,
      "ìłķë°Ģ": 7371,
      "ìĬ¤íĬ¸ë¦¬": 7372,
      "íı´ë¡ľ": 7373,
      "ë°°ìļ´": 7374,
      "ìĿ´ìĸ´ì§ĢëĬĶ": 7375,
      "ì¶ľë§Ī": 7376,
      "ë§¡ìķĦ": 7377,
      "ìĤ¬ë¬¼": 7378,
      "ì§ķê³Ħ": 7379,
      "ìĥģìĭĿ": 7380,
      "ëĬĻ": 7381,
      "ëĲĺì£ł": 7382,
      "ìŀħëĬĶ": 7383,
      "ì¹ĺë©°": 7384,
      "ìķ½íķľ": 7385,
      "ë§ĪìĿ´íģ¬ë¡ľ": 7386,
      "íĪ¼": 7387,
      "ìĦ¸ìļ´": 7388,
      "ìķłëĭĪë©ĶìĿ´ìħĺ": 7389,
      "ìĬ¤ìľĦìĬ¤": 7390,
      "ìĭ¤ë¦¬ì½ĺ": 7391,
      "ë²ĪìĹĲ": 7392,
      "ìĥģìĬ¹ìĦ¸": 7393,
      "ìħĢëŁ¬": 7394,
      "ìī¬ê³ł": 7395,
      "ìĿĮìĽĲ": 7396,
      "ìĽĲëª©": 7397,
      "ëıĦìĥī": 7398,
      "ëĤ´ëĭ¤": 7399,
      "ìĹ¬íĬ¼": 7400,
      "ìĭ¶ê³ł": 7401,
      "êµ¬ìĽĲ": 7402,
      "ëĨĴê²Į": 7403,
      "íļ¨ëĬ¥": 7404,
      "íģ´ëłĮì§ķ": 7405,
      "ëª¨ìľł": 7406,
      "ìĻĢìķ¼": 7407,
      "ìĿ´ì¢ħ": 7408,
      "ê³¨ëĵł": 7409,
      "ìĥĿê²¨ìĦľ": 7410,
      "ìĿ´ê±°ëĤĺ": 7411,
      "ëĦ£ëĬĶ": 7412,
      "íķĦëĿ¼": 7413,
      "ëıĻíĸ¥": 7414,
      "ë¸ĶëŁ¬": 7415,
      "ëıĮê³ł": 7416,
      "ëĶĶìł¤": 7417,
      "ìķĵ": 7418,
      "ìºĦ": 7419,
      "êµ¬íķł": 7420,
      "ìĨĮëŁī": 7421,
      "ìłĢëĤĺ": 7422,
      "íķ©ìĭľëĭ¤": 7423,
      "ë³´ìĦĿ": 7424,
      "ëĳĲê»ĺ": 7425,
      "ìĬ¬ìĬ¬": 7426,
      "ìķĦëŀ«": 7427,
      "ëĤĺìķĦê°Ģ": 7428,
      "ëª»íķĺê²Į": 7429,
      "ê¸Ģìĵ°ê¸°": 7430,
      "ì¡´ê²½": 7431,
      "ê²ĮìĬ¤íĬ¸": 7432,
      "ê¸°ë²ķ": 7433,
      "íķĺìħ¨ëĤĺ": 7434,
      "ìļķìĦ¤": 7435,
      "ì¶ķìĤ°": 7436,
      "ì¢ħìĤ¬": 7437,
      "ë§Įë§Į": 7438,
      "ëª¨íħĶ": 7439,
      "ìĻĪ": 7440,
      "ìłĦìĨ¡": 7441,
      "ëĮĢêµĲ": 7442,
      "ë³´ìĿ´ëĬĶëį°": 7443,
      "ëª¨ë¥´ê²łìĬµëĭĪëĭ¤": 7444,
      "ê°ĢìĭľëĬĶ": 7445,
      "ìĦ¸ëĿ¼": 7446,
      "ë³´ìĿ´ê²Į": 7447,
      "ìĤ¬ìĭľ": 7448,
      "ëıĻì°¸": 7449,
      "ê¼¼ê¼¼íķĺê²Į": 7450,
      "ëĭ¬ë¦°": 7451,
      "íĶĮëłĪìĿ´ìĸ´": 7452,
      "ìłĳì¢ħ": 7453,
      "ê·ĢìĹ¬ìĽĮ": 7454,
      "ê°ĦìłĪ": 7455,
      "ë³´ëıĦë¡Ŀ": 7456,
      "ëİĢ": 7457,
      "íĬ¸ëłĪ": 7458,
      "ìĹ¬ìĭł": 7459,
      "íĪ¬ëį°ìĿ´": 7460,
      "ìŀĦëªħ": 7461,
      "ë¶ĢëĶ": 7462,
      "ìŀłìŀ¬": 7463,
      "ìķĬìĿĮ": 7464,
      "íĿ¡ìŀħ": 7465,
      "ìĿ´ëħ¸": 7466,
      "ìĽĥëĬĶ": 7467,
      "ì§Ģíĸ¥": 7468,
      "íĺĶëĭ¤": 7469,
      "íĺ¸ìĨĮ": 7470,
      "ê³łë£¨": 7471,
      "ë¶ģëıĦ": 7472,
      "ìŀĪê±°ëĵł": 7473,
      "íĽĮë¥Ńíķľ": 7474,
      "ìĸ´ì©Įë©´": 7475,
      "ì£¼ìĹ°": 7476,
      "ëª¸ë§¤": 7477,
      "ëħ¸íĽĦ": 7478,
      "ìĭ¤ë¬¼": 7479,
      "ëĤĺìĺ¤ê¸°": 7480,
      "ìķĬìķĺìĸ´": 7481,
      "ìķľ": 7482,
      "ìĹ°ì²´": 7483,
      "íĸĩë¹Ľ": 7484,
      "ëĤĺíĥĢëĤĺëĬĶ": 7485,
      "ìĭ¤ìłĲ": 7486,
      "ëħ¸ëĬĶ": 7487,
      "ìĪĺë§Į": 7488,
      "ëĳĲêº¼": 7489,
      "ë°Ľìľ¼ìĭľëĬĶ": 7490,
      "ì¶©ëıĮ": 7491,
      "ì«Ģ": 7492,
      "ìĦ¤ëĵĿ": 7493,
      "ìŀĦìĤ°": 7494,
      "íĬ¸ë¦½": 7495,
      "ëª°ëł¤": 7496,
      "ìļ°ìłķ": 7497,
      "ë§ĲëĿ¼ê³ł": 7498,
      "íķĺëįĶëĭĪ": 7499,
      "ë°ĶëĢĲ": 7500,
      "ìĪĺëł¨": 7501,
      "ìķĦë¥´ë°ĶìĿ´íĬ¸": 7502,
      "ìľłë£Į": 7503,
      "ë£¨íĶĦ": 7504,
      "íĶ¼ì§Ģ": 7505,
      "ìķĦëĭĪêµ¬": 7506,
      "ìĹ°ëıĻ": 7507,
      "ê°Ŀê´Ģ": 7508,
      "ëĲĺìŀĲ": 7509,
      "ìļĶìĽĲ": 7510,
      "ëĤ©íĴĪ": 7511,
      "ë¬´ìĦľìĽĮ": 7512,
      "ìķĦì¤Įë§Ī": 7513,
      "ê¸°ëıħ": 7514,
      "ìŀĦìĿĺ": 7515,
      "ìļĶëĦ¹": 7516,
      "ìĭ¤ìłĦ": 7517,
      "ê·¸ëłĩê¸°": 7518,
      "ê±¸ë¦´": 7519,
      "ê²¨ìĦľ": 7520,
      "ìŀłìĪĺ": 7521,
      "ìķĦë¦Ħëĭµ": 7522,
      "ìļ°ëĮĢ": 7523,
      "ê°ľìłķìķĪ": 7524,
      "ìĭľì£ł": 7525,
      "ê°ĢëĦ¤": 7526,
      "ì¡°ìĭĿ": 7527,
      "ì°¨ê¸°": 7528,
      "íĮĮìĨĲ": 7529,
      "ì²ľìŀ¥": 7530,
      "ëĲĺìĹĪëįĺ": 7531,
      "ìĿ¸ìłģ": 7532,
      "íķľì°½": 7533,
      "ì²Ńì¶ĺ": 7534,
      "ìĭ¤ëªħ": 7535,
      "ìĿĢíĺľ": 7536,
      "ë§Īë¸Ķ": 7537,
      "íķľìĪ¨": 7538,
      "ìĸ´ìĸ´": 7539,
      "ìķĬìķĺëįĺ": 7540,
      "ì¿¡": 7541,
      "ê¸Īê°ķ": 7542,
      "ê°Ģìĭľë©´": 7543,
      "ho": 7544,
      "ìł¤ë¦¬": 7545,
      "ë¨¸ë¦¿": 7546,
      "íĳľë©´": 7547,
      "íĮ¨ëĦĲ": 7548,
      "ìłķìŀĲ": 7549,
      "íĻĶë³´": 7550,
      "ìłģìŀĲ": 7551,
      "íĶĮëĿ¼ìĬ¤íĭ±": 7552,
      "ê³łëĮĢ": 7553,
      "íĬ¹íĻĶ": 7554,
      "ìķĮìķĦìķ¼": 7555,
      "ìķĦê¹Ŀ": 7556,
      "ë°©ì¹ĺ": 7557,
      "ë°ĶëĿ¼ëĬĶ": 7558,
      "ìĭłëĤĺê²Į": 7559,
      "ì¶Ķìłģ": 7560,
      "ìĹĨëįĺ": 7561,
      "ìłľêµŃ": 7562,
      "ëĤ¨ìĸĳì£¼": 7563,
      "ìŀĶëľ©": 7564,
      "ë¸ĶëŁŃ": 7565,
      "ìĪĺíĻķ": 7566,
      "íĮ¡ìĿ´": 7567,
      "ê±¸ê³ł": 7568,
      "ìĨĲëª©": 7569,
      "ìŀ¥êµ°": 7570,
      "íĥĶ": 7571,
      "ìĻĢìĿ´íĶĦ": 7572,
      "ëħ¸ìĽĲ": 7573,
      "ëª©ê±¸ìĿ´": 7574,
      "ìĽĥê³ł": 7575,
      "ìĹĲëĭ¤ê°Ģ": 7576,
      "ìĿ¼ìĸ´ëĤľ": 7577,
      "ë²łëĦ¤": 7578,
      "ìķ¼ë§Ī": 7579,
      "ìŀħë¬¸": 7580,
      "ìŀ¬ê°Ģìŀħ": 7581,
      "ìĥģíĸ¥": 7582,
      "ë§ĿìĦ¤": 7583,
      "ìľłê¸°ëĨį": 7584,
      "ë´īíĪ¬": 7585,
      "ì£¼ìľł": 7586,
      "ìķĮê²łìĬµëĭĪëĭ¤": 7587,
      "êº¾": 7588,
      "ê¿Īê¾¸": 7589,
      "ìĥģìĥĿ": 7590,
      "ëı¼ìķ¼": 7591,
      "ìĿ´ìĬ¤ëĿ¼ìĹĺ": 7592,
      "ìķħìĦ¸": 7593,
      "ì§ĢëĭĮ": 7594,
      "íĥľìĸ´ëĤľ": 7595,
      "ì²Ńëĭ´": 7596,
      "ëİĮ": 7597,
      "ìĭľëĮģ": 7598,
      "ìĬ¤ìľĦì¹ĺ": 7599,
      "ë²ħì§Ģ": 7600,
      "ë²Ħíĭ°": 7601,
      "ìļ©ìĦľ": 7602,
      "íĭ°ìĬĪ": 7603,
      "ì°¨ê³ł": 7604,
      "ìłĦíĮĮ": 7605,
      "ì¤ĳëıĦ": 7606,
      "ë§ĪìĤ°": 7607,
      "ëĮĲ": 7608,
      "ê¹ģëĭĪëĭ¤": 7609,
      "ëŁ¬ìĬ¤": 7610,
      "ëĳĲë©´": 7611,
      "ê°Ģê³Ħ": 7612,
      "ìĿ¸ë¬¸": 7613,
      "ëĲĺìĹĪëĦ¤": 7614,
      "íĮĮê²¬": 7615,
      "ë°±ìĦ±": 7616,
      "ëĲĺìĹĪëĭ¤ê³ł": 7617,
      "ê¾¹": 7618,
      "ìĭ¶ëĭ¤ê³ł": 7619,
      "íķĺìĺĢìľ¼ë©°": 7620,
      "íķĺëĥĲ": 7621,
      "ìĬ¤ìĽ¨": 7622,
      "ê±°ìłľ": 7623,
      "ìķĦíķĺ": 7624,
      "íĶĦëŀľ": 7625,
      "ë¶ģë¯¸": 7626,
      "ìŀĪê²łì§Ģë§Į": 7627,
      "ìłķìŀĳ": 7628,
      "ìĸĳìľ¡": 7629,
      "ê°±ìĭł": 7630,
      "ë¯¸ìĬ¤íĦ°": 7631,
      "ìķĦëĭĪëĿ¼ëĬĶ": 7632,
      "not": 7633,
      "ë³´ëįĺ": 7634,
      "íĨłíģ¬": 7635,
      "íĺ¸ë¥´": 7636,
      "ë§¡ìĿĢ": 7637,
      "ìĤ¬ëª¨": 7638,
      "ì°©ê°ģ": 7639,
      "ëıĦìłĢíŀĪ": 7640,
      "ìŀĲìĨĮìĦľ": 7641,
      "íĥģìĽĶ": 7642,
      "ìŀ¬íĺĦ": 7643,
      "ê¹İ": 7644,
      "ìĹĲëĤĺ": 7645,
      "ìºĶëĵ¤": 7646,
      "ìĹĨìľ¼ë©°": 7647,
      "ê³µì¤ĳ": 7648,
      "ë°ĽìķĺëĬĶëį°": 7649,
      "go": 7650,
      "ë°°ìļ°ëĬĶ": 7651,
      "ìĦŀìĸ´": 7652,
      "íķľëĪĪ": 7653,
      "ëģĪíķľ": 7654,
      "ìļ°ì¸¡": 7655,
      "ë§ĮìĹĲ": 7656,
      "ê°Ħê²©": 7657,
      "ê·¸ì¹ĺ": 7658,
      "ìĤ°ë¦¼": 7659,
      "ë°ĶìĤŃ": 7660,
      "ìķĮë¦¬": 7661,
      "íĮ¸": 7662,
      "ëĭ¦ìķĦ": 7663,
      "ìłľìŀĲ": 7664,
      "id": 7665,
      "ë©ĶëĶĶ": 7666,
      "ëĤĺìģĺì§Ģ": 7667,
      "ë¹łì§Ī": 7668,
      "ìĭłë¹Ħ": 7669,
      "ìłĢíķĺ": 7670,
      "ëįĶìĬ¤": 7671,
      "ìĦľìĸĳ": 7672,
      "ì²ŃìĤ¬": 7673,
      "íĮĮê³ł": 7674,
      "su": 7675,
      "kb": 7676,
      "íıŃíĥĦ": 7677,
      "ë°ĺê°Ĵ": 7678,
      "ìĦ±ìĪĺ": 7679,
      "ë²Ĺìĸ´": 7680,
      "íĺ¸ê¸°": 7681,
      "ad": 7682,
      "ì°¸ìľ¼ë¡ľ": 7683,
      "ëĦ£ìĿĦ": 7684,
      "ëĵĢìĸ¼": 7685,
      "íķľëıĻìķĪ": 7686,
      "ìĬ¤íĦ´": 7687,
      "ìķ¡ìŀĲ": 7688,
      "ìļ¬": 7689,
      "ìŀĲì¡´": 7690,
      "ìĹĪëĤĺ": 7691,
      "ì¹¨ì²´": 7692,
      "ë°©ìĤ¬": 7693,
      "ê²°ìĭ¬": 7694,
      "co": 7695,
      "êµ°ìĿ¸": 7696,
      "ìĿ´ìĹĪì§Ģë§Į": 7697,
      "ë¯¸ë£¨": 7698,
      "íĮĮìļ°ëįĶ": 7699,
      "ë°Ģëł¤": 7700,
      "ê°Ļëĭ¤ëĬĶ": 7701,
      "ì´Īë°¥": 7702,
      "ê³µì§ģ": 7703,
      "ìľłìĭ¬": 7704,
      "ì§ģíķľ": 7705,
      "ë§Ĳíķĺë©´": 7706,
      "íĮ¥": 7707,
      "ë¯¸ì¹ĺ": 7708,
      "ìļĶë²Ī": 7709,
      "êµ¬ì²Ń": 7710,
      "ìķ½êµŃ": 7711,
      "ëĲĲëįĺ": 7712,
      "ëıĻëĮĢë¬¸": 7713,
      "íį½": 7714,
      "íķĻìľĦ": 7715,
      "íķĺëĬĲ": 7716,
      "íģ´ëĿ¼ìļ°ëĵľ": 7717,
      "ë¶Ģëĭ¹": 7718,
      "ë°Ľì¹¨": 7719,
      "ìķĪëĲĺê³ł": 7720,
      "ë¶Ģì¸ł": 7721,
      "ëĨįëıĦ": 7722,
      "ë³´êµ¬": 7723,
      "ëĮĢìĦ¸": 7724,
      "ë¦¬íĶĮ": 7725,
      "all": 7726,
      "ê³łêµĲ": 7727,
      "ë¦¬ëĵľ": 7728,
      "ìļ©ìĹŃ": 7729,
      "ê°ĲíĥĦ": 7730,
      "ëİĥ": 7731,
      "ë¡ľìĦľìĿĺ": 7732,
      "ìº£": 7733,
      "íħĮìĬ¤": 7734,
      "ìķķëł¥": 7735,
      "ìĸ´ì§¸": 7736,
      "ëª¨ë°ľ": 7737,
      "ìŀĪìŀĸìķĦ": 7738,
      "ëĵ¤ëŁ¬": 7739,
      "ìĽĲíķĺìĭľë©´": 7740,
      "ìĪĺëª©": 7741,
      "ìħ¨ëĭ¤": 7742,
      "ì§ķìĹŃ": 7743,
      "ì£¼ëĭĪìĸ´": 7744,
      "ìĸ´ëłµì§Ģ": 7745,
      "ìļĶìª½ì§Ģ": 7746,
      "ëĮĢëĬĶ": 7747,
      "ìĦ¸ë¸Ĳ": 7748,
      "ëĨĢëĿ¼ìļ´": 7749,
      "ëºı": 7750,
      "ìĺ¤ìĭ¤": 7751,
      "íķ´ìĪĺìļķ": 7752,
      "ì¹ľì¶Ķ": 7753,
      "ë²¤ì¸ł": 7754,
      "ìĤ¬ìļ°": 7755,
      "ìĤ¬íĥķ": 7756,
      "ìį¬íĮħ": 7757,
      "ìĺ¤ê²Į": 7758,
      "ëª¹": 7759,
      "ì¤Ģê³µ": 7760,
      "ëªħìĭľ": 7761,
      "ëĵľëłĪ": 7762,
      "ëĮĢë²ķìĽĲ": 7763,
      "ìħĶë¦¬": 7764,
      "ìĽĲìŀĲ": 7765,
      "ë§ĮìĿĢ": 7766,
      "ëŁ°ì¹ĺ": 7767,
      "íĪŃ": 7768,
      "ì£¼ìĹĪ": 7769,
      "ë°ķìĿ´": 7770,
      "ê³łìľł": 7771,
      "ìłķìĦľ": 7772,
      "ì§ĢëĿ¼": 7773,
      "êµ¬ì§ģ": 7774,
      "ë¶Ĳ": 7775,
      "ìŀ¤": 7776,
      "ëĮĢê¸Ī": 7777,
      "ld": 7778,
      "ê³¤ëŀĢ": 7779,
      "ì´Ŀê´Ħ": 7780,
      "ìĹ°ì¤ĳ": 7781,
      "íĻĶê°Ģ": 7782,
      "íķĺìħ¨ëĬĶëį°": 7783,
      "íĲģ": 7784,
      "ëł¸ëįĺ": 7785,
      "ê°Ļêµ¬": 7786,
      "ê³łë¥´": 7787,
      "ì¤ĳìĪľ": 7788,
      "ê°Īìĥī": 7789,
      "ìĭľê·¸": 7790,
      "ì¡°ë¦¼": 7791,
      "ìĦłë°ķ": 7792,
      "ìķ½ìłķ": 7793,
      "ìľ¡ìĪĺ": 7794,
      "ìĻķë³µ": 7795,
      "ë¯¼íĬ¸": 7796,
      "ì¡°ì¹´": 7797,
      "ì¡Įëĭ¤ê³ł": 7798,
      "íıīë²Ķíķľ": 7799,
      "ê°Ģëł¤ê³ł": 7800,
      "ì¦Ŀì§Ħ": 7801,
      "ìķĪëĲľëĭ¤": 7802,
      "ìķĦëĭĪìĹĪëĭ¤": 7803,
      "ìłģì§Ģ": 7804,
      "ë£¨ë¯¸": 7805,
      "ëª©ëıĻ": 7806,
      "ìĽĲë£Į": 7807,
      "ëĦ¤ìĿ´ë¹Ħ": 7808,
      "ìĵ°ë¦¬": 7809,
      "ë§īëĤ´": 7810,
      "ìĪĻì§Ģ": 7811,
      "ìŀ¬ë°ľ": 7812,
      "ê°¤ëŁ¬ë¦¬": 7813,
      "ë¹Ħë¦¬": 7814,
      "íĥľìĸ´ëĤĺ": 7815,
      "ë°ĶëĿ¼ë©°": 7816,
      "ìĭľêµ¬": 7817,
      "ê°Ģíķ´": 7818,
      "ëª°ëĿ¼ëıĦ": 7819,
      "íĹĪë²ħì§Ģ": 7820,
      "êµ¬ë¹Ħ": 7821,
      "ì°¡": 7822,
      "ìĸµì§Ģ": 7823,
      "ë²łìĿ´ì§Ģ": 7824,
      "ìĿ¸ë¥ĺ": 7825,
      "íŀĺëĵ¤ê²Į": 7826,
      "ëĳĲê¸°": 7827,
      "ìķĦíģ¬": 7828,
      "ìĬ¤ëħ¸": 7829,
      "ìļ°ëĭĪ": 7830,
      "ê°Ħíĺ¹": 7831,
      "ë¡Ńê³ł": 7832,
      "ìľ¼ëł¤ê³ł": 7833,
      "ìķĪëıĻ": 7834,
      "ìłķë¥ĺ": 7835,
      "ìĭľê¸ī": 7836,
      "ë§¤íĬ¸ë¦¬ìĬ¤": 7837,
      "ê¸°ì¢ħ": 7838,
      "ë¶ĪìĮį": 7839,
      "ìĿ´ê¸¸": 7840,
      "íĥĪëĿ½": 7841,
      "ë¿Ķ": 7842,
      "ëĭ¬ì½¤íķľ": 7843,
      "íĮĮëıĦ": 7844,
      "íľ´ìĿ¼": 7845,
      "ìĺģì£¼": 7846,
      "ìĭ¶ìĹĪëĭ¤": 7847,
      "ë¿Įëĵ¯": 7848,
      "ëª»íķľëĭ¤": 7849,
      "ìĩ¼íĮĮ": 7850,
      "ìĥģìĿ¸": 7851,
      "ì¦ĿíĽĦ": 7852,
      "íĮĮìĿ´ìĸ´": 7853,
      "ë³´ìĤ´": 7854,
      "ì§Ģë¦Ħ": 7855,
      "ê²Łìĸ´": 7856,
      "íĮĮìĤ°": 7857,
      "ìĦłëªħ": 7858,
      "ê°Ķëįĺ": 7859,
      "ê²©ëł¤": 7860,
      "ê³łìłĦ": 7861,
      "ëĭ¨ì¶ķ": 7862,
      "ê²ĮìĿ´íĬ¸": 7863,
      "ë¬¼ìĹĪëĭ¤": 7864,
      "ë°ĶìĿ´íģ¬": 7865,
      "ë§Īìĭ¤": 7866,
      "íĤµ": 7867,
      "ëĵ¤ìĹĪëĬĶëį°": 7868,
      "ê¹¨ëĭ«": 7869,
      "ëĵ¤ê¸°": 7870,
      "ìĬ¤íĥĢë²ħìĬ¤": 7871,
      "ë°ĶìĬ¤": 7872,
      "ì¾Įìłģ": 7873,
      "íĻĶìĤ¬": 7874,
      "ë³´ìĿ´ê¸°": 7875,
      "ê¹ĶëģĶíķĺê³ł": 7876,
      "ëĿ¼ëĸ¼": 7877,
      "ëĤ¬ìĸ´": 7878,
      "ì¢ĭìķĺëįĺ": 7879,
      "ë³´ë¬¼": 7880,
      "ë§ŀì¶°ìĦľ": 7881,
      "íĻįìĤ¼": 7882,
      "íı´ë¦¬ìĺ¤": 7883,
      "ê²łìĬµëĭĪê¹Į": 7884,
      "ìķĦíĶĶ": 7885,
      "ìĤ°íĻĶ": 7886,
      "ë§ĮëĤĺê³ł": 7887,
      "ìĹ´ê¸°": 7888,
      "ìĸµìļ¸": 7889,
      "ìĺ¤ë¦Ħ": 7890,
      "ìķĮê¸°": 7891,
      "ë¬´ìĿ¸": 7892,
      "ëł¸ëĬĶëį°": 7893,
      "ë°°ìļ¸": 7894,
      "ìŀĦìĤ°ë¶Ģ": 7895,
      "ìĿ¼ìĽĲ": 7896,
      "ìķĬìķĺëĬĶëį°": 7897,
      "ë³¶ìĿĮë°¥": 7898,
      "ìľłìĦł": 7899,
      "ëĭ¨ë§Ĳ": 7900,
      "ì¡ĮëĬĶëį°": 7901,
      "ëĭ¬ëĿ¼ëĬĶ": 7902,
      "ìĭľëıĻ": 7903,
      "ë³¼ë¥¨": 7904,
      "íĥĢìĿ´ë°į": 7905,
      "ì§Ģìŀ¥": 7906,
      "ì°¨ëł¤": 7907,
      "ìĺ¤ë¸Ĳ": 7908,
      "ê°ľìŀ¥": 7909,
      "ìķĦìĿ´íĮ¨ëĵľ": 7910,
      "ëŁŃìħĶë¦¬": 7911,
      "ìĸ´ëĳł": 7912,
      "ìĹİ": 7913,
      "lo": 7914,
      "ìľłì§Ħ": 7915,
      "ìľłìĹĶ": 7916,
      "íĹ¬ë¡ľ": 7917,
      "ì£¼ë¥ĺ": 7918,
      "ìłĲíĶĦ": 7919,
      "ìŀĦíĶĮëŀĢíĬ¸": 7920,
      "ìĸĳë§Ĳ": 7921,
      "ìĺ¤ë¦¬ì§Ģ": 7922,
      "ê°ķëĵ±": 7923,
      "íķ´ìĤ°": 7924,
      "ì¢ĭëĭ¤ëĬĶ": 7925,
      "ìĤ¬ê±°ë¦¬": 7926,
      "ëĵĿíħľ": 7927,
      "ìĻķìŀĲ": 7928,
      "ìĨĮíıŃ": 7929,
      "ìłĦìĭł": 7930,
      "ê¸°ìĪĻ": 7931,
      "ìĭ¬íĻĶ": 7932,
      "ë¬¼ê³ł": 7933,
      "íĸĪìĹĪëĭ¤": 7934,
      "ë¯¸êµ°": 7935,
      "ìłĲíį¼": 7936,
      "ë§ĮìłĲ": 7937,
      "ìĦ±íķ¨": 7938,
      "ìŀĳìķĦ": 7939,
      "ìĿ´ëĵĿ": 7940,
      "ìĺ¤ìĤ°": 7941,
      "ìķ¼ë§Ĳë¡ľ": 7942,
      "íħĮìĿ´íĶĦ": 7943,
      "ëĴ¤ì§ĳ": 7944,
      "ìĬ¤íĬ¸ëĿ¼": 7945,
      "ë£¨ìĿ´": 7946,
      "ìĪĺìĦł": 7947,
      "ê·¼ëĮĢ": 7948,
      "am": 7949,
      "ì¤ĦìĹ¬": 7950,
      "ê²ªê³ł": 7951,
      "ê´ľì°®ìĿĦ": 7952,
      "ë´īì§Ģ": 7953,
      "ê´Ģì¸¡": 7954,
      "ìļ©ì§Ģ": 7955,
      "ëħ¸ëŀĳ": 7956,
      "ìłģê²Į": 7957,
      "ë¬´ìŀ¥": 7958,
      "ëĭ¤ëĭĪë©´ìĦľ": 7959,
      "ë¶ĢëĶª": 7960,
      "ë§¤ì½¤": 7961,
      "ì§ĦëıĻ": 7962,
      "ìķĦëĶĶëĭ¤ìĬ¤": 7963,
      "ìħĭíĬ¸": 7964,
      "ëĦĲë¦¬": 7965,
      "ìŀĲìĤ¬": 7966,
      "ëĭ¤ì§Ģ": 7967,
      "ì§ĦëıĦ": 7968,
      "íĮĮìļ°ì¹ĺ": 7969,
      "íĶ¼ìĸ´": 7970,
      "ëĦĺë²Ħ": 7971,
      "ëģĵìĹ¬": 7972,
      "ì²¨ê°Ģ": 7973,
      "ëĲĲëĬĶëį°": 7974,
      "ìĻĢì¤ĳ": 7975,
      "ìĨįìĦ±": 7976,
      "ì½ĶëĶ©": 7977,
      "ìĿ¸íĦ´": 7978,
      "ìļĶì§Ģê¸Ī": 7979,
      "ìĹĲìĿ´ìĬ¤": 7980,
      "ê±¸ë¦¬ëĬĶ": 7981,
      "íļĮìĪĺ": 7982,
      "ì°¨ê·¼": 7983,
      "ëĤĺëĪĦìĸ´": 7984,
      "ê¹Įëĭ¤": 7985,
      "íı´ëįĶ": 7986,
      "ëĿ¼ìĿ´ëĵľ": 7987,
      "ìķĶíĺ¸": 7988,
      "íĮĶì°Į": 7989,
      "ê°ĪëĿ¼": 7990,
      "ë§¤ë¦½": 7991,
      "ê³łì§Ģ": 7992,
      "ìĿ´ê±°ëĵł": 7993,
      "ê³łì§ĳ": 7994,
      "ëŀ¨íĶĦ": 7995,
      "ìłķë©´": 7996,
      "ro": 7997,
      "ê°ķë¶ģ": 7998,
      "ëĤĺìĻĶìĬµëĭĪëĭ¤": 7999,
      "ìĹĦì²ŃëĤĺê²Į": 8000,
      "ìĤ¬ë²ķ": 8001,
      "íģ¬ëĿ¼": 8002,
      "ëįĺìł¸": 8003,
      "íķĺìħ¨ëĭ¤": 8004,
      "ìŀĲë§¤": 8005,
      "ìĿ¸ëĭ¹": 8006,
      "ê¹Ģìŀ¬": 8007,
      "ê¸īê²©": 8008,
      "ë¶Ħìĭ¤": 8009,
      "ëªħëĭ¨": 8010,
      "ì¹ĺë§¤": 8011,
      "ëĦ¤ëª¨": 8012,
      "ê°ĢëĤľ": 8013,
      "ì°¬ìĦ±": 8014,
      "ìķĪê°ľ": 8015,
      "ìĿĺì¡´": 8016,
      "ê°ģìĺ¤": 8017,
      "ìĨĲìŀ¡ìĿ´": 8018,
      "íŀĺëĵ¤ê³ł": 8019,
      "ëª©íı¬": 8020,
      "ëĶ±ëĶ±": 8021,
      "ì¹´íĬ¸": 8022,
      "ê³¼ê°Ĳ": 8023,
      "ìĪĺìĽĶ": 8024,
      "ëŁ¬ìī¬": 8025,
      "ê¸īì¦Ŀ": 8026,
      "ìķĪëĲľ": 8027,
      "ë§ĪìħĶ": 8028,
      "ìºĲë¦¬ìĸ´": 8029,
      "ëĲĺëįĶëĿ¼êµ¬": 8030,
      "ìĺ¤ìħĺ": 8031,
      "ê·¸ëĤĺìłĢëĤĺ": 8032,
      "ë°§": 8033,
      "ìĿ´ë§Ī": 8034,
      "ë³´ì»¬": 8035,
      "ìŀĪëĬĶê°Ģ": 8036,
      "ìĿ¼ì¢ħ": 8037,
      "ëłĪìķĮ": 8038,
      "íĴĢê³ł": 8039,
      "ìĤ¬ìķĪ": 8040,
      "ì²´ì§Ī": 8041,
      "ìĹĲë²Ħ": 8042,
      "ìķĦíĨłíĶ¼": 8043,
      "ìķĬìķĺê³ł": 8044,
      "ëłĪëĤĺ": 8045,
      "ìĥģíģ¼": 8046,
      "theof": 8047,
      "ìĭľë§Ī": 8048,
      "ê¸°ëıħêµĲ": 8049,
      "ìĥģìĺģ": 8050,
      "ë§ĪìĿ¸ëĵľ": 8051,
      "ì°¸ì¹ĺ": 8052,
      "ìĸ´ì¼Ģ": 8053,
      "ìĤ¬ê·Ģ": 8054,
      "íĮł": 8055,
      "íķ©ëıĻ": 8056,
      "ê±°ë¶ģ": 8057,
      "ìĹ´ìĹĪëĭ¤": 8058,
      "íĻ©ìłľ": 8059,
      "ìŀĲë¶Ģ": 8060,
      "ëŀı": 8061,
      "ê°Ģì¡Įëĭ¤": 8062,
      "íĺ¸ë¥´ëª¬": 8063,
      "ìĦ¤ë¬¸": 8064,
      "ìĿ´ëªħë°ķ": 8065,
      "ë©ĶíĥĪ": 8066,
      "íļĮì°¨": 8067,
      "ë³´ëĥĪëĭ¤": 8068,
      "ìłĪìķ½": 8069,
      "ìĽĢì§ģìĿ´ëĬĶ": 8070,
      "ëıĻê³Ħ": 8071,
      "ê²ŁëĦ¤": 8072,
      "ë¡ľìĽĮ": 8073,
      "ì§Ģìĺ¥": 8074,
      "ìŀ¥ë¡Ģ": 8075,
      "ìķĦë²ł": 8076,
      "ìĪľìĿ´ìĿµ": 8077,
      "ë¨¼ìĬ¤": 8078,
      "ìģł": 8079,
      "ë§ŀëĭ¤": 8080,
      "ìķĮëĿ¼": 8081,
      "ê´ĳìĹŃ": 8082,
      "ë§ĮìĿ¼": 8083,
      "ê³µíĻĶ": 8084,
      "ê²Įìŀ¬": 8085,
      "ê³łë°ľ": 8086,
      "ìĭľì½Ķ": 8087,
      "ì²Ńë°Ķì§Ģ": 8088,
      "ëĲĺìĹĪìĿĦ": 8089,
      "ì¤į": 8090,
      "ìķĪìķĦ": 8091,
      "ìĨįìĥģ": 8092,
      "ìĹĨìĿĦê¹Į": 8093,
      "ê´´ë¡Ń": 8094,
      "ìĤ¬ëĤ´": 8095,
      "êµ¬ìłķ": 8096,
      "ìłķê°Ģ": 8097,
      "íĿĲë¥´ëĬĶ": 8098,
      "íĭ°ëĵľ": 8099,
      "ëª¨ìľ¼ê³ł": 8100,
      "ëĦĺê²¨": 8101,
      "ë¯¸ëĶĶ": 8102,
      "ëıĻë§¹": 8103,
      "ëĤĺìĺ¤ëĦ¤": 8104,
      "ìĻľëĥĲíķĺë©´": 8105,
      "ëĥĦë¹Ħ": 8106,
      "ìµľìķħ": 8107,
      "ìļ°ì§Ģ": 8108,
      "ëıĮìķĦìĺ¨": 8109,
      "ìłľë³´": 8110,
      "íĴįìĦł": 8111,
      "ìĦľìķ¼": 8112,
      "ë°¸ë¦¬": 8113,
      "ëĤ¨êµ¬": 8114,
      "ëĽ°ìĸ´ëĤĺ": 8115,
      "ëıĻëł¥": 8116,
      "ë¯¸ëĦ¤": 8117,
      "ìķĦëĭĪëĿ¼ìĦľ": 8118,
      "ìĥģì£¼": 8119,
      "ìĹĨìĹĪìĸ´": 8120,
      "ë¬¼íĴĪëªħ": 8121,
      "ë§Īë¥¸": 8122,
      "íĮĲêµĲ": 8123,
      "ëıĻìķĦë¦¬": 8124,
      "ìĭ«ìĿĢ": 8125,
      "ê·¸ìłľ": 8126,
      "ìłľìłķ": 8127,
      "ê¹Ģì§Ħ": 8128,
      "ìłĦê²½": 8129,
      "ë§ĮìĦ±": 8130,
      "ëģĦëĬĶ": 8131,
      "ë³´ëŀĮ": 8132,
      "ì¡°ê°ľ": 8133,
      "ì§ĦìĪł": 8134,
      "ëĵľë¦¬ë©´": 8135,
      "ë©§": 8136,
      "ê°ĢëĶĶê±´": 8137,
      "ìĸ´ìļ°ëŁ¬": 8138,
      "ìĤ°ìĨĮ": 8139,
      "ë¶ĢëģĦëŁ¬": 8140,
      "ìĹ¬ì§Ģ": 8141,
      "íĶ¼ê·ľìĸ´": 8142,
      "ìĪ¨ê²¨": 8143,
      "ì¡Įëįĺ": 8144,
      "ìĨĮìķ¡": 8145,
      "ëĭ¤ëĭĮ": 8146,
      "ìĹĲíĶ¼": 8147,
      "ë³´ìĺĢ": 8148,
      "ìĥĢìĸ´": 8149,
      "ìĿ´ìĦ¸ìļĶ": 8150,
      "íĺĦìĪĺ": 8151,
      "ëĿ¼ìĿ´ìĸ¸": 8152,
      "ìłĦìĤ°": 8153,
      "ë¦¬ìĬ¤íģ¬": 8154,
      "ìŀīê¸Ģ": 8155,
      "ë°Ķë¥´ê³ł": 8156,
      "ëĨĵëĬĶ": 8157,
      "ìł¯": 8158,
      "íı¬íĬ¸íı´ë¦¬ìĺ¤": 8159,
      "ëĲĺëĭĪê¹Į": 8160,
      "íķĺëĬĶê°Ģ": 8161,
      "ë¬»ìĸ´": 8162,
      "ìĹ°ìĸ´": 8163,
      "ëĥīë©´": 8164,
      "ë¡ľë¹Ħ": 8165,
      "ìĪĺìĭł": 8166,
      "ëĵ¤ë¦¬": 8167,
      "ëĤ¬ìĬµëĭĪëĭ¤": 8168,
      "ëĦ¤ê³ł": 8169,
      "ìķĮë¦¼": 8170,
      "íķłëł¤ê³ł": 8171,
      "íķĺìŀĲëĬĶ": 8172,
      "ê°ĢìĤ°": 8173,
      "ìħĭíĮħ": 8174,
      "ì¶©ì£¼": 8175,
      "ìļĶìĺ¤ëĬĺ": 8176,
      "ìĿĢìĿĢ": 8177,
      "íĺĦìķĪ": 8178,
      "ëĿ¼ìĿ¸ëĵľ": 8179,
      "íķĻìĤ¬": 8180,
      "ìĬ¹ì§Ħ": 8181,
      "ìĪĺëıĻ": 8182,
      "ìĭľìķĪ": 8183,
      "ëĶ§": 8184,
      "ìĹĨìĸ´ëıĦ": 8185,
      "ìĽĮìĭ±": 8186,
      "ë¶ĢëĵľëŁ½ê²Į": 8187,
      "ìĹħìŀĲ": 8188,
      "ë»¥": 8189,
      "ìĥĮëĵľìľĦì¹ĺ": 8190,
      "ê°ľëĭ¹": 8191,
      "ìłĦìĪĺ": 8192,
      "ë¸ĮìĿ´": 8193,
      "ëĭ¤ëħĢìĺ¨": 8194,
      "ë°Ķë¹ł": 8195,
      "ë§ĪìĭľëĬĶ": 8196,
      "ìĹŃìłĦ": 8197,
      "ë©ĶìĿ´ìłĢ": 8198,
      "ìłķìĤ°": 8199,
      "ëĲĺê±°ëĤĺ": 8200,
      "ì£½ëĬĶ": 8201,
      "ì¹´ë¦¬": 8202,
      "ìłĦëĭ¹": 8203,
      "ì³ĩ": 8204,
      "ê°Ħëĭ¤ê³ł": 8205,
      "ìĽĥìľ¼ë©°": 8206,
      "ìĿ¸íķĺìĹ¬": 8207,
      "ì«Ħê¹ĥ": 8208,
      "ìĪĺìĦ±": 8209,
      "ê°Ļì§Ģë§Į": 8210,
      "ë¦¬íķĦ": 8211,
      "ë³´ìķĺìĸ´": 8212,
      "ë¦¬ìķĪ": 8213,
      "ë¯¸ìķĦ": 8214,
      "ìłľê³ł": 8215,
      "ë°ĶëĬĺ": 8216,
      "ê°ĸì¶Ķê³ł": 8217,
      "ìŀ¬ìĪĺ": 8218,
      "ì©¡": 8219,
      "ë¯¸ëŁ¬": 8220,
      "ìĿĳëª¨": 8221,
      "ë°ĺê°ĳìĬµëĭĪëĭ¤": 8222,
      "ìĺ¤ë¥¼": 8223,
      "íĭĢë¦°": 8224,
      "íĥĢê¸°": 8225,
      "ëĨĢëŀĲ": 8226,
      "ëłĪìĿ¸ì§Ģ": 8227,
      "íĤ¤ìļ°ê³ł": 8228,
      "ê³µì²ľ": 8229,
      "ë³ĳìĭł": 8230,
      "ëĵ¯íķ©ëĭĪëĭ¤": 8231,
      "íĶĦë¡ľíķĦ": 8232,
      "ì¶ĶìľĦ": 8233,
      "ì¤ĺëıĦ": 8234,
      "aê¸ī": 8235,
      "íķĺê²łì§Ģë§Į": 8236,
      "ìĿ¸ì§ĢëĿ¼": 8237,
      "ëĨĢìĿ´íĦ°": 8238,
      "íķŃìĿĺ": 8239,
      "ìŀ¬ê±´ì¶ķ": 8240,
      "íķľëĭµëĭĪëĭ¤": 8241,
      "ìĹĨìĹĪìĬµëĭĪëĭ¤": 8242,
      "ke": 8243,
      "íĹ·ê°Ī": 8244,
      "ë´¤ëįĶëĭĪ": 8245,
      "ìķĦê³ł": 8246,
      "ìłĦìĹŃ": 8247,
      "ìĭĿê°Ĳ": 8248,
      "ë¶Īê½ĥ": 8249,
      "íĨłìĬ¤": 8250,
      "íĤ¤ìĽĮëĵľ": 8251,
[...]
